{
  "version": "1.0",
  "truncation": null,
  "padding": null,
  "added_tokens": [
    {
      "id": 0,
      "content": "<PAD>",
      "single_word": false,
      "lstrip": false,
      "rstrip": false,
      "normalized": false,
      "special": true
    },
    {
      "id": 1,
      "content": "<BOS>",
      "single_word": false,
      "lstrip": false,
      "rstrip": false,
      "normalized": false,
      "special": true
    },
    {
      "id": 2,
      "content": "<EOS>",
      "single_word": false,
      "lstrip": false,
      "rstrip": false,
      "normalized": false,
      "special": true
    },
    {
      "id": 3,
      "content": "<UNK>",
      "single_word": false,
      "lstrip": false,
      "rstrip": false,
      "normalized": false,
      "special": true
    }
  ],
  "normalizer": null,
  "pre_tokenizer": {
    "type": "Whitespace"
  },
  "post_processor": null,
  "decoder": null,
  "model": {
    "type": "BPE",
    "dropout": null,
    "unk_token": "<UNK>",
    "continuing_subword_prefix": null,
    "end_of_word_suffix": null,
    "fuse_unk": false,
    "byte_fallback": false,
    "ignore_merges": false,
    "vocab": {
      "<PAD>": 0,
      "<BOS>": 1,
      "<EOS>": 2,
      "<UNK>": 3,
      "!": 4,
      "\"": 5,
      "#": 6,
      "$": 7,
      "%": 8,
      "&": 9,
      "'": 10,
      "(": 11,
      ")": 12,
      "*": 13,
      "+": 14,
      ",": 15,
      "-": 16,
      ".": 17,
      "/": 18,
      "0": 19,
      "1": 20,
      "2": 21,
      "3": 22,
      "4": 23,
      "5": 24,
      "6": 25,
      "7": 26,
      "8": 27,
      "9": 28,
      ":": 29,
      ";": 30,
      "<": 31,
      "=": 32,
      ">": 33,
      "?": 34,
      "@": 35,
      "A": 36,
      "B": 37,
      "C": 38,
      "D": 39,
      "E": 40,
      "F": 41,
      "G": 42,
      "H": 43,
      "I": 44,
      "J": 45,
      "K": 46,
      "L": 47,
      "M": 48,
      "N": 49,
      "O": 50,
      "P": 51,
      "Q": 52,
      "R": 53,
      "S": 54,
      "T": 55,
      "U": 56,
      "V": 57,
      "W": 58,
      "X": 59,
      "Y": 60,
      "Z": 61,
      "[": 62,
      "\\": 63,
      "]": 64,
      "^": 65,
      "_": 66,
      "`": 67,
      "a": 68,
      "b": 69,
      "c": 70,
      "d": 71,
      "e": 72,
      "f": 73,
      "g": 74,
      "h": 75,
      "i": 76,
      "j": 77,
      "k": 78,
      "l": 79,
      "m": 80,
      "n": 81,
      "o": 82,
      "p": 83,
      "q": 84,
      "r": 85,
      "s": 86,
      "t": 87,
      "u": 88,
      "v": 89,
      "w": 90,
      "x": 91,
      "y": 92,
      "z": 93,
      "{": 94,
      "|": 95,
      "}": 96,
      "~": 97,
      "": 98,
      "": 99,
      "": 100,
      "": 101,
      "": 102,
      "¡": 103,
      "¢": 104,
      "£": 105,
      "¤": 106,
      "¥": 107,
      "¦": 108,
      "§": 109,
      "¨": 110,
      "©": 111,
      "«": 112,
      "¬": 113,
      "­": 114,
      "®": 115,
      "¯": 116,
      "°": 117,
      "±": 118,
      "²": 119,
      "³": 120,
      "´": 121,
      "µ": 122,
      "¶": 123,
      "·": 124,
      "¸": 125,
      "¹": 126,
      "º": 127,
      "»": 128,
      "¼": 129,
      "½": 130,
      "¾": 131,
      "¿": 132,
      "À": 133,
      "Á": 134,
      "Â": 135,
      "Ã": 136,
      "Ä": 137,
      "Å": 138,
      "Æ": 139,
      "Ç": 140,
      "È": 141,
      "É": 142,
      "Ê": 143,
      "Í": 144,
      "Î": 145,
      "Ð": 146,
      "Ó": 147,
      "Ô": 148,
      "Õ": 149,
      "Ö": 150,
      "×": 151,
      "Ø": 152,
      "Ú": 153,
      "Ü": 154,
      "Þ": 155,
      "ß": 156,
      "à": 157,
      "á": 158,
      "â": 159,
      "ã": 160,
      "ä": 161,
      "å": 162,
      "æ": 163,
      "ç": 164,
      "è": 165,
      "é": 166,
      "ê": 167,
      "ë": 168,
      "ì": 169,
      "í": 170,
      "î": 171,
      "ï": 172,
      "ð": 173,
      "ñ": 174,
      "ò": 175,
      "ó": 176,
      "ô": 177,
      "õ": 178,
      "ö": 179,
      "÷": 180,
      "ø": 181,
      "ù": 182,
      "ú": 183,
      "û": 184,
      "ü": 185,
      "ý": 186,
      "þ": 187,
      "ÿ": 188,
      "Ā": 189,
      "ā": 190,
      "Ă": 191,
      "ă": 192,
      "ą": 193,
      "Ć": 194,
      "ć": 195,
      "ċ": 196,
      "Č": 197,
      "č": 198,
      "Ď": 199,
      "ď": 200,
      "Đ": 201,
      "đ": 202,
      "Ē": 203,
      "ē": 204,
      "ĕ": 205,
      "ė": 206,
      "ę": 207,
      "ě": 208,
      "ĝ": 209,
      "Ğ": 210,
      "ğ": 211,
      "Ġ": 212,
      "ġ": 213,
      "Ħ": 214,
      "ħ": 215,
      "ĩ": 216,
      "Ī": 217,
      "ī": 218,
      "ĭ": 219,
      "į": 220,
      "İ": 221,
      "ı": 222,
      "ĵ": 223,
      "ļ": 224,
      "Ł": 225,
      "ł": 226,
      "ń": 227,
      "ņ": 228,
      "ň": 229,
      "ŋ": 230,
      "Ō": 231,
      "ō": 232,
      "ŏ": 233,
      "ő": 234,
      "Œ": 235,
      "œ": 236,
      "ř": 237,
      "Ś": 238,
      "ś": 239,
      "Ş": 240,
      "ş": 241,
      "Š": 242,
      "š": 243,
      "ţ": 244,
      "ť": 245,
      "ũ": 246,
      "ū": 247,
      "ŭ": 248,
      "ů": 249,
      "ű": 250,
      "ų": 251,
      "ŵ": 252,
      "ź": 253,
      "Ż": 254,
      "ż": 255,
      "Ž": 256,
      "ž": 257,
      "Ǝ": 258,
      "ƒ": 259,
      "ơ": 260,
      "ư": 261,
      "ƿ": 262,
      "ǀ": 263,
      "ǁ": 264,
      "ǂ": 265,
      "ǃ": 266,
      "ǎ": 267,
      "ǐ": 268,
      "ǒ": 269,
      "ǔ": 270,
      "ǚ": 271,
      "ǜ": 272,
      "ǝ": 273,
      "ǥ": 274,
      "Ǧ": 275,
      "ǧ": 276,
      "ǭ": 277,
      "ǵ": 278,
      "ǽ": 279,
      "ș": 280,
      "ț": 281,
      "ȟ": 282,
      "ɉ": 283,
      "ɐ": 284,
      "ɑ": 285,
      "ɒ": 286,
      "ɔ": 287,
      "ɕ": 288,
      "ɖ": 289,
      "ə": 290,
      "ɚ": 291,
      "ɛ": 292,
      "ɜ": 293,
      "ɡ": 294,
      "ɢ": 295,
      "ɣ": 296,
      "ɤ": 297,
      "ɥ": 298,
      "ɦ": 299,
      "ɨ": 300,
      "ɪ": 301,
      "ɫ": 302,
      "ɬ": 303,
      "ɭ": 304,
      "ɯ": 305,
      "ɲ": 306,
      "ɳ": 307,
      "ɵ": 308,
      "ɷ": 309,
      "ɸ": 310,
      "ɹ": 311,
      "ɺ": 312,
      "ɾ": 313,
      "ʀ": 314,
      "ʁ": 315,
      "ʂ": 316,
      "ʃ": 317,
      "ʇ": 318,
      "ʈ": 319,
      "ʉ": 320,
      "ʊ": 321,
      "ʋ": 322,
      "ʌ": 323,
      "ʎ": 324,
      "ʏ": 325,
      "ʑ": 326,
      "ʒ": 327,
      "ʔ": 328,
      "ʕ": 329,
      "ʘ": 330,
      "ʤ": 331,
      "ʰ": 332,
      "ʱ": 333,
      "ʲ": 334,
      "ʷ": 335,
      "ʹ": 336,
      "ʺ": 337,
      "ʻ": 338,
      "ʼ": 339,
      "ʾ": 340,
      "ʿ": 341,
      "ˀ": 342,
      "ˁ": 343,
      "ˇ": 344,
      "ˈ": 345,
      "ˌ": 346,
      "ː": 347,
      "ˑ": 348,
      "˘": 349,
      "˚": 350,
      "˜": 351,
      "˝": 352,
      "ˠ": 353,
      "ˡ": 354,
      "ˤ": 355,
      "˥": 356,
      "˧": 357,
      "˨": 358,
      "˩": 359,
      "˭": 360,
      "̀": 361,
      "́": 362,
      "̃": 363,
      "̄": 364,
      "̇": 365,
      "̈": 366,
      "̌": 367,
      "̍": 368,
      "̞": 369,
      "̠": 370,
      "̣": 371,
      "̤": 372,
      "̥": 373,
      "̧": 374,
      "̨": 375,
      "̩": 376,
      "̪": 377,
      "̯": 378,
      "̽": 379,
      "͡": 380,
      "Ά": 381,
      "·": 382,
      "Α": 383,
      "Β": 384,
      "Γ": 385,
      "Δ": 386,
      "Ε": 387,
      "Ζ": 388,
      "Η": 389,
      "Θ": 390,
      "Ι": 391,
      "Κ": 392,
      "Λ": 393,
      "Μ": 394,
      "Ν": 395,
      "Ο": 396,
      "Π": 397,
      "Ρ": 398,
      "Σ": 399,
      "Τ": 400,
      "Υ": 401,
      "Φ": 402,
      "Χ": 403,
      "Ψ": 404,
      "Ω": 405,
      "ά": 406,
      "έ": 407,
      "ή": 408,
      "ί": 409,
      "α": 410,
      "β": 411,
      "γ": 412,
      "δ": 413,
      "ε": 414,
      "ζ": 415,
      "η": 416,
      "θ": 417,
      "ι": 418,
      "κ": 419,
      "λ": 420,
      "μ": 421,
      "ν": 422,
      "ξ": 423,
      "ο": 424,
      "π": 425,
      "ρ": 426,
      "ς": 427,
      "σ": 428,
      "τ": 429,
      "υ": 430,
      "φ": 431,
      "χ": 432,
      "ψ": 433,
      "ω": 434,
      "ϋ": 435,
      "ό": 436,
      "ύ": 437,
      "ώ": 438,
      "ϑ": 439,
      "ϛ": 440,
      "ϩ": 441,
      "Є": 442,
      "Ј": 443,
      "Ў": 444,
      "А": 445,
      "Б": 446,
      "В": 447,
      "Г": 448,
      "Д": 449,
      "Е": 450,
      "З": 451,
      "И": 452,
      "К": 453,
      "Л": 454,
      "М": 455,
      "Н": 456,
      "О": 457,
      "П": 458,
      "Р": 459,
      "С": 460,
      "Т": 461,
      "Ф": 462,
      "Х": 463,
      "Ц": 464,
      "а": 465,
      "б": 466,
      "в": 467,
      "г": 468,
      "д": 469,
      "е": 470,
      "ж": 471,
      "з": 472,
      "и": 473,
      "й": 474,
      "к": 475,
      "л": 476,
      "м": 477,
      "н": 478,
      "о": 479,
      "п": 480,
      "р": 481,
      "с": 482,
      "т": 483,
      "у": 484,
      "ф": 485,
      "х": 486,
      "ц": 487,
      "ч": 488,
      "ш": 489,
      "щ": 490,
      "ъ": 491,
      "ы": 492,
      "ь": 493,
      "э": 494,
      "ю": 495,
      "я": 496,
      "ё": 497,
      "і": 498,
      "ї": 499,
      "ј": 500,
      "ћ": 501,
      "ў": 502,
      "ѣ": 503,
      "ѧ": 504,
      "ѩ": 505,
      "ѫ": 506,
      "ѭ": 507,
      "ѳ": 508,
      "ѵ": 509,
      "ғ": 510,
      "ң": 511,
      "ү": 512,
      "ҳ": 513,
      "Ҷ": 514,
      "ҷ": 515,
      "ә": 516,
      "Ա": 517,
      "Բ": 518,
      "Գ": 519,
      "Լ": 520,
      "Կ": 521,
      "Հ": 522,
      "Մ": 523,
      "Պ": 524,
      "Տ": 525,
      "Ք": 526,
      "ա": 527,
      "բ": 528,
      "գ": 529,
      "ե": 530,
      "ի": 531,
      "լ": 532,
      "կ": 533,
      "հ": 534,
      "մ": 535,
      "յ": 536,
      "ն": 537,
      "շ": 538,
      "ո": 539,
      "պ": 540,
      "ջ": 541,
      "ս": 542,
      "վ": 543,
      "տ": 544,
      "ր": 545,
      "ց": 546,
      "ւ": 547,
      "փ": 548,
      "ք": 549,
      "օ": 550,
      "և": 551,
      "֖": 552,
      "֥": 553,
      "ְ": 554,
      "ֲ": 555,
      "ִ": 556,
      "ֵ": 557,
      "ֶ": 558,
      "ַ": 559,
      "ָ": 560,
      "ֹ": 561,
      "ֻ": 562,
      "ּ": 563,
      "ֽ": 564,
      "־": 565,
      "ֿ": 566,
      "ׁ": 567,
      "ׂ": 568,
      "א": 569,
      "ב": 570,
      "ג": 571,
      "ד": 572,
      "ה": 573,
      "ו": 574,
      "ז": 575,
      "ח": 576,
      "ט": 577,
      "י": 578,
      "ך": 579,
      "כ": 580,
      "ל": 581,
      "ם": 582,
      "מ": 583,
      "ן": 584,
      "נ": 585,
      "ס": 586,
      "ע": 587,
      "ף": 588,
      "פ": 589,
      "ץ": 590,
      "צ": 591,
      "ק": 592,
      "ר": 593,
      "ש": 594,
      "ת": 595,
      "ײ": 596,
      "ء": 597,
      "آ": 598,
      "أ": 599,
      "ؤ": 600,
      "إ": 601,
      "ئ": 602,
      "ا": 603,
      "ب": 604,
      "ة": 605,
      "ت": 606,
      "ث": 607,
      "ج": 608,
      "ح": 609,
      "خ": 610,
      "د": 611,
      "ذ": 612,
      "ر": 613,
      "ز": 614,
      "س": 615,
      "ش": 616,
      "ص": 617,
      "ض": 618,
      "ط": 619,
      "ظ": 620,
      "ع": 621,
      "غ": 622,
      "ـ": 623,
      "ف": 624,
      "ق": 625,
      "ك": 626,
      "ل": 627,
      "م": 628,
      "ن": 629,
      "ه": 630,
      "و": 631,
      "ى": 632,
      "ي": 633,
      "ً": 634,
      "ٌ": 635,
      "ٍ": 636,
      "َ": 637,
      "ُ": 638,
      "ِ": 639,
      "ّ": 640,
      "ْ": 641,
      "ٔ": 642,
      "ٹ": 643,
      "پ": 644,
      "چ": 645,
      "ڇ": 646,
      "ڕ": 647,
      "ژ": 648,
      "ڠ": 649,
      "ڤ": 650,
      "ک": 651,
      "ڭ": 652,
      "گ": 653,
      "ڵ": 654,
      "ں": 655,
      "ھ": 656,
      "ہ": 657,
      "ۆ": 658,
      "ۇ": 659,
      "ۋ": 660,
      "ی": 661,
      "ے": 662,
      "ە": 663,
      "ܐ": 664,
      "ܒ": 665,
      "ܘ": 666,
      "ܚ": 667,
      "ܝ": 668,
      "ܟ": 669,
      "ܠ": 670,
      "ܡ": 671,
      "ܢ": 672,
      "ܥ": 673,
      "ܦ": 674,
      "ܨ": 675,
      "ܩ": 676,
      "ܪ": 677,
      "ܫ": 678,
      "ܬ": 679,
      "ܵ": 680,
      "ܸ": 681,
      "ܹ": 682,
      "ܿ": 683,
      "݁": 684,
      "݂": 685,
      "ं": 686,
      "ः": 687,
      "अ": 688,
      "आ": 689,
      "इ": 690,
      "ई": 691,
      "ऐ": 692,
      "ओ": 693,
      "क": 694,
      "ख": 695,
      "ग": 696,
      "घ": 697,
      "च": 698,
      "ज": 699,
      "ट": 700,
      "ठ": 701,
      "ड": 702,
      "ण": 703,
      "त": 704,
      "थ": 705,
      "द": 706,
      "ध": 707,
      "न": 708,
      "प": 709,
      "फ": 710,
      "ब": 711,
      "भ": 712,
      "म": 713,
      "य": 714,
      "र": 715,
      "ल": 716,
      "व": 717,
      "श": 718,
      "ष": 719,
      "स": 720,
      "ह": 721,
      "़": 722,
      "ा": 723,
      "ि": 724,
      "ी": 725,
      "ु": 726,
      "ू": 727,
      "े": 728,
      "ै": 729,
      "ॊ": 730,
      "ो": 731,
      "ौ": 732,
      "्": 733,
      "ঁ": 734,
      "ং": 735,
      "অ": 736,
      "ক": 737,
      "গ": 738,
      "জ": 739,
      "ট": 740,
      "ঠ": 741,
      "ণ": 742,
      "ত": 743,
      "দ": 744,
      "ন": 745,
      "প": 746,
      "ব": 747,
      "ম": 748,
      "য": 749,
      "র": 750,
      "ল": 751,
      "শ": 752,
      "স": 753,
      "়": 754,
      "া": 755,
      "ি": 756,
      "ী": 757,
      "ে": 758,
      "ো": 759,
      "্": 760,
      "ৰ": 761,
      "ਕ": 762,
      "ਖ": 763,
      "ਗ": 764,
      "ਤ": 765,
      "ਥ": 766,
      "ਦ": 767,
      "ਨ": 768,
      "ਪ": 769,
      "ਬ": 770,
      "ਮ": 771,
      "ਰ": 772,
      "ਲ": 773,
      "ਸ": 774,
      "ਹ": 775,
      "਼": 776,
      "ਾ": 777,
      "ਿ": 778,
      "ੀ": 779,
      "ੁ": 780,
      "ੂ": 781,
      "੍": 782,
      "ੜ": 783,
      "ੰ": 784,
      "ર": 785,
      "લ": 786,
      "વ": 787,
      "શ": 788,
      "ા": 789,
      "ଁ": 790,
      "ଆ": 791,
      "ଇ": 792,
      "ଖ": 793,
      "ନ": 794,
      "ା": 795,
      "ୂ": 796,
      "இ": 797,
      "ஏ": 798,
      "க": 799,
      "ங": 800,
      "ச": 801,
      "ஞ": 802,
      "ட": 803,
      "த": 804,
      "ன": 805,
      "ப": 806,
      "ம": 807,
      "ய": 808,
      "ர": 809,
      "ற": 810,
      "ல": 811,
      "ள": 812,
      "ழ": 813,
      "வ": 814,
      "ா": 815,
      "ி": 816,
      "ீ": 817,
      "ு": 818,
      "ை": 819,
      "ொ": 820,
      "்": 821,
      "ಕ": 822,
      "ಚ": 823,
      "ಜ": 824,
      "ಪ": 825,
      "ಮ": 826,
      "ಯ": 827,
      "ರ": 828,
      "ಲ": 829,
      "ಶ": 830,
      "ಸ": 831,
      "ಾ": 832,
      "ಿ": 833,
      "ು": 834,
      "್": 835,
      "ക": 836,
      "യ": 837,
      "ർ": 838,
      "ං": 839,
      "ඇ": 840,
      "ක": 841,
      "ජ": 842,
      "ත": 843,
      "ද": 844,
      "න": 845,
      "ප": 846,
      "ම": 847,
      "ඹ": 848,
      "ය": 849,
      "ර": 850,
      "ල": 851,
      "ව": 852,
      "ශ": 853,
      "ස": 854,
      "හ": 855,
      "ළ": 856,
      "්": 857,
      "ා": 858,
      "ැ": 859,
      "ි": 860,
      "ී": 861,
      "ේ": 862,
      "ก": 863,
      "ข": 864,
      "ค": 865,
      "ง": 866,
      "จ": 867,
      "ช": 868,
      "ด": 869,
      "น": 870,
      "พ": 871,
      "ม": 872,
      "ย": 873,
      "ร": 874,
      "ล": 875,
      "ว": 876,
      "ศ": 877,
      "ส": 878,
      "อ": 879,
      "ะ": 880,
      "ั": 881,
      "า": 882,
      "ำ": 883,
      "ิ": 884,
      "ี": 885,
      "ื": 886,
      "฿": 887,
      "เ": 888,
      "แ": 889,
      "โ": 890,
      "ใ": 891,
      "ไ": 892,
      "่": 893,
      "้": 894,
      "์": 895,
      "ກ": 896,
      "ງ": 897,
      "ຊ": 898,
      "ດ": 899,
      "ຕ": 900,
      "ທ": 901,
      "ນ": 902,
      "ບ": 903,
      "ປ": 904,
      "ມ": 905,
      "ລ": 906,
      "ວ": 907,
      "ສ": 908,
      "ອ": 909,
      "ະ": 910,
      "ັ": 911,
      "າ": 912,
      "ິ": 913,
      "ີ": 914,
      "ື": 915,
      "ົ": 916,
      "ເ": 917,
      "ໄ": 918,
      "་": 919,
      "ཀ": 920,
      "ཁ": 921,
      "ག": 922,
      "ཆ": 923,
      "ཏ": 924,
      "ད": 925,
      "ན": 926,
      "བ": 927,
      "མ": 928,
      "ཛ": 929,
      "ར": 930,
      "ས": 931,
      "ཧ": 932,
      "ི": 933,
      "ོ": 934,
      "ྥ": 935,
      "ྱ": 936,
      "န": 937,
      "သ": 938,
      "ာ": 939,
      "း": 940,
      "ა": 941,
      "ე": 942,
      "ვ": 943,
      "თ": 944,
      "ი": 945,
      "ლ": 946,
      "მ": 947,
      "ო": 948,
      "პ": 949,
      "რ": 950,
      "ს": 951,
      "უ": 952,
      "ღ": 953,
      "ჭ": 954,
      "ხ": 955,
      "ሂ": 956,
      "ለ": 957,
      "ሊ": 958,
      "ላ": 959,
      "መ": 960,
      "ሞ": 961,
      "ሥ": 962,
      "ረ": 963,
      "ሪ": 964,
      "ራ": 965,
      "ሲ": 966,
      "ሳ": 967,
      "ስ": 968,
      "ሻ": 969,
      "ቅ": 970,
      "ቡ": 971,
      "ባ": 972,
      "ቤ": 973,
      "ብ": 974,
      "ተ": 975,
      "ታ": 976,
      "ት": 977,
      "ና": 978,
      "ን": 979,
      "አ": 980,
      "ኢ": 981,
      "እ": 982,
      "ክ": 983,
      "ዊ": 984,
      "ዜ": 985,
      "የ": 986,
      "ያ": 987,
      "ዮ": 988,
      "ደ": 989,
      "ዲ": 990,
      "ዴ": 991,
      "ግ": 992,
      "ጵ": 993,
      "ፌ": 994,
      "ፐ": 995,
      "፡": 996,
      "Ꭰ": 997,
      "Ꭳ": 998,
      "Ꭶ": 999,
      "Ꭸ": 1000,
      "Ꭹ": 1001,
      "Ꮀ": 1002,
      "Ꮃ": 1003,
      "Ꮉ": 1004,
      "Ꮎ": 1005,
      "Ꮝ": 1006,
      "Ꮟ": 1007,
      "Ꮤ": 1008,
      "Ꮿ": 1009,
      "Ᏹ": 1010,
      "ᐊ": 1011,
      "ᑕ": 1012,
      "ᑦ": 1013,
      "ᑲ": 1014,
      "ᓄ": 1015,
      "ᓇ": 1016,
      "ᓯ": 1017,
      "ᖅ": 1018,
      "ᗅ": 1019,
      "ᗷ": 1020,
      "ᗺ": 1021,
      "គ": 1022,
      "ង": 1023,
      "ត": 1024,
      "ធ": 1025,
      "ប": 1026,
      "យ": 1027,
      "រ": 1028,
      "វ": 1029,
      "ស": 1030,
      "អ": 1031,
      "ុ": 1032,
      "ោ": 1033,
      "ៈ": 1034,
      "្": 1035,
      "ᮀ": 1036,
      "ᮏ": 1037,
      "ᮓ": 1038,
      "ᮔ": 1039,
      "ᮘ": 1040,
      "ᮝ": 1041,
      "ᮥ": 1042,
      "᮪": 1043,
      "ᴊ": 1044,
      "ᴘ": 1045,
      "ᵊ": 1046,
      "ᵻ": 1047,
      "ᶢ": 1048,
      "ḇ": 1049,
      "Ḍ": 1050,
      "ḍ": 1051,
      "ḏ": 1052,
      "ḕ": 1053,
      "ḗ": 1054,
      "ḡ": 1055,
      "Ḥ": 1056,
      "ḥ": 1057,
      "ḩ": 1058,
      "ḫ": 1059,
      "ḱ": 1060,
      "ḵ": 1061,
      "ḷ": 1062,
      "ḻ": 1063,
      "ṃ": 1064,
      "ṅ": 1065,
      "ṇ": 1066,
      "ṓ": 1067,
      "ṗ": 1068,
      "Ṛ": 1069,
      "ṛ": 1070,
      "ṟ": 1071,
      "ṡ": 1072,
      "Ṣ": 1073,
      "ṣ": 1074,
      "Ṭ": 1075,
      "ṭ": 1076,
      "ṯ": 1077,
      "Ẓ": 1078,
      "ẓ": 1079,
      "ẖ": 1080,
      "ạ": 1081,
      "ả": 1082,
      "ấ": 1083,
      "ậ": 1084,
      "ắ": 1085,
      "ằ": 1086,
      "ẵ": 1087,
      "ẻ": 1088,
      "ế": 1089,
      "ề": 1090,
      "ễ": 1091,
      "ệ": 1092,
      "ỉ": 1093,
      "ị": 1094,
      "ỏ": 1095,
      "ố": 1096,
      "ồ": 1097,
      "ổ": 1098,
      "ộ": 1099,
      "ớ": 1100,
      "ờ": 1101,
      "Ụ": 1102,
      "ụ": 1103,
      "ứ": 1104,
      "ử": 1105,
      "ữ": 1106,
      "ự": 1107,
      "ỳ": 1108,
      "ἀ": 1109,
      "ἁ": 1110,
      "ἄ": 1111,
      "ἆ": 1112,
      "Ἀ": 1113,
      "Ἁ": 1114,
      "Ἄ": 1115,
      "ἐ": 1116,
      "ἑ": 1117,
      "ἔ": 1118,
      "ἕ": 1119,
      "Ἐ": 1120,
      "Ἑ": 1121,
      "ἠ": 1122,
      "ἡ": 1123,
      "ἤ": 1124,
      "ἥ": 1125,
      "ἦ": 1126,
      "Ἡ": 1127,
      "Ἥ": 1128,
      "ἰ": 1129,
      "ἱ": 1130,
      "ἴ": 1131,
      "ἵ": 1132,
      "ἶ": 1133,
      "Ἰ": 1134,
      "Ἶ": 1135,
      "ὀ": 1136,
      "ὁ": 1137,
      "ὄ": 1138,
      "ὅ": 1139,
      "ὐ": 1140,
      "ὑ": 1141,
      "ὕ": 1142,
      "ὖ": 1143,
      "Ὑ": 1144,
      "ὠ": 1145,
      "ὧ": 1146,
      "ὰ": 1147,
      "ὲ": 1148,
      "έ": 1149,
      "ὴ": 1150,
      "ὶ": 1151,
      "ί": 1152,
      "ὸ": 1153,
      "ό": 1154,
      "ὺ": 1155,
      "ύ": 1156,
      "ὼ": 1157,
      "ᾠ": 1158,
      "ᾴ": 1159,
      "ᾶ": 1160,
      "ᾷ": 1161,
      "ῄ": 1162,
      "ῆ": 1163,
      "ῖ": 1164,
      "ῥ": 1165,
      "ῦ": 1166,
      "Ῥ": 1167,
      "ῳ": 1168,
      "ῶ": 1169,
      "ῷ": 1170,
      "῾": 1171,
      "​": 1172,
      "‌": 1173,
      "‍": 1174,
      "‎": 1175,
      "‐": 1176,
      "‑": 1177,
      "‒": 1178,
      "–": 1179,
      "—": 1180,
      "―": 1181,
      "‘": 1182,
      "’": 1183,
      "‚": 1184,
      "“": 1185,
      "”": 1186,
      "„": 1187,
      "‟": 1188,
      "†": 1189,
      "‡": 1190,
      "•": 1191,
      "…": 1192,
      "‪": 1193,
      "‬": 1194,
      "‰": 1195,
      "′": 1196,
      "″": 1197,
      "‹": 1198,
      "›": 1199,
      "⁄": 1200,
      "⁊": 1201,
      "⁰": 1202,
      "ⁿ": 1203,
      "₁": 1204,
      "₂": 1205,
      "₣": 1206,
      "₤": 1207,
      "₥": 1208,
      "₨": 1209,
      "₫": 1210,
      "€": 1211,
      "₭": 1212,
      "₯": 1213,
      "₱": 1214,
      "₴": 1215,
      "₵": 1216,
      "₹": 1217,
      "₺": 1218,
      "₽": 1219,
      "℃": 1220,
      "℉": 1221,
      "ℓ": 1222,
      "℔": 1223,
      "№": 1224,
      "ℛ": 1225,
      "℠": 1226,
      "™": 1227,
      "℥": 1228,
      "⅓": 1229,
      "⅛": 1230,
      "↑": 1231,
      "→": 1232,
      "↓": 1233,
      "↔": 1234,
      "↕": 1235,
      "⇒": 1236,
      "∅": 1237,
      "∆": 1238,
      "∈": 1239,
      "∑": 1240,
      "−": 1241,
      "∖": 1242,
      "∗": 1243,
      "√": 1244,
      "∝": 1245,
      "∞": 1246,
      "∠": 1247,
      "∧": 1248,
      "∨": 1249,
      "∼": 1250,
      "≅": 1251,
      "≈": 1252,
      "≡": 1253,
      "≤": 1254,
      "≥": 1255,
      "⊕": 1256,
      "⋅": 1257,
      "⋔": 1258,
      "⌀": 1259,
      "⌂": 1260,
      "⌘": 1261,
      "│": 1262,
      "■": 1263,
      "▲": 1264,
      "►": 1265,
      "▼": 1266,
      "▾": 1267,
      "◉": 1268,
      "◊": 1269,
      "◌": 1270,
      "●": 1271,
      "◦": 1272,
      "☆": 1273,
      "☎": 1274,
      "☛": 1275,
      "☞": 1276,
      "☭": 1277,
      "☮": 1278,
      "☺": 1279,
      "♂": 1280,
      "♄": 1281,
      "♆": 1282,
      "♉": 1283,
      "♌": 1284,
      "♏": 1285,
      "♐": 1286,
      "♒": 1287,
      "♗": 1288,
      "♝": 1289,
      "♠": 1290,
      "♦": 1291,
      "♪": 1292,
      "♫": 1293,
      "♯": 1294,
      "♲": 1295,
      "♻": 1296,
      "⚕": 1297,
      "⚜": 1298,
      "✔": 1299,
      "✡": 1300,
      "✶": 1301,
      "✸": 1302,
      "❝": 1303,
      "❤": 1304,
      "⟨": 1305,
      "⟩": 1306,
      "⩽": 1307,
      "Ⰳ": 1308,
      "ⰰ": 1309,
      "ⰳ": 1310,
      "ⰻ": 1311,
      "ⰾ": 1312,
      "ⱁ": 1313,
      "ⱌ": 1314,
      "ⲁ": 1315,
      "ⲏ": 1316,
      "ⲓ": 1317,
      "Ⲕ": 1318,
      "ⲙ": 1319,
      "ⲣ": 1320,
      "Ⲭ": 1321,
      "ⴰ": 1322,
      "ⴱ": 1323,
      "ⴳ": 1324,
      "ⴷ": 1325,
      "ⴻ": 1326,
      "ⴽ": 1327,
      "ⵀ": 1328,
      "ⵇ": 1329,
      "ⵉ": 1330,
      "ⵍ": 1331,
      "ⵎ": 1332,
      "ⵏ": 1333,
      "ⵓ": 1334,
      "ⵖ": 1335,
      "ⵙ": 1336,
      "ⵜ": 1337,
      "ⵡ": 1338,
      "ⵢ": 1339,
      "ⵣ": 1340,
      "。": 1341,
      "《": 1342,
      "》": 1343,
      "〜": 1344,
      "い": 1345,
      "う": 1346,
      "お": 1347,
      "か": 1348,
      "く": 1349,
      "げ": 1350,
      "さ": 1351,
      "じ": 1352,
      "す": 1353,
      "せ": 1354,
      "そ": 1355,
      "た": 1356,
      "ち": 1357,
      "っ": 1358,
      "つ": 1359,
      "て": 1360,
      "ど": 1361,
      "な": 1362,
      "に": 1363,
      "の": 1364,
      "は": 1365,
      "ば": 1366,
      "ひ": 1367,
      "ふ": 1368,
      "ぶ": 1369,
      "ぷ": 1370,
      "ほ": 1371,
      "ぽ": 1372,
      "ま": 1373,
      "み": 1374,
      "む": 1375,
      "め": 1376,
      "ら": 1377,
      "り": 1378,
      "る": 1379,
      "ろ": 1380,
      "わ": 1381,
      "ん": 1382,
      "ァ": 1383,
      "ア": 1384,
      "ィ": 1385,
      "イ": 1386,
      "オ": 1387,
      "カ": 1388,
      "キ": 1389,
      "ギ": 1390,
      "ク": 1391,
      "グ": 1392,
      "コ": 1393,
      "シ": 1394,
      "ジ": 1395,
      "ス": 1396,
      "セ": 1397,
      "ゼ": 1398,
      "ソ": 1399,
      "タ": 1400,
      "ダ": 1401,
      "チ": 1402,
      "ッ": 1403,
      "テ": 1404,
      "デ": 1405,
      "ト": 1406,
      "ナ": 1407,
      "ニ": 1408,
      "ヌ": 1409,
      "ノ": 1410,
      "バ": 1411,
      "パ": 1412,
      "ビ": 1413,
      "ピ": 1414,
      "フ": 1415,
      "ブ": 1416,
      "プ": 1417,
      "ホ": 1418,
      "ボ": 1419,
      "ポ": 1420,
      "マ": 1421,
      "ミ": 1422,
      "メ": 1423,
      "モ": 1424,
      "ャ": 1425,
      "ュ": 1426,
      "ョ": 1427,
      "ヨ": 1428,
      "ラ": 1429,
      "リ": 1430,
      "ル": 1431,
      "レ": 1432,
      "ロ": 1433,
      "ワ": 1434,
      "ン": 1435,
      "ヶ": 1436,
      "・": 1437,
      "ー": 1438,
      "ㄅ": 1439,
      "ㄆ": 1440,
      "ㄇ": 1441,
      "ㄈ": 1442,
      "㓾": 1443,
      "一": 1444,
      "丁": 1445,
      "七": 1446,
      "三": 1447,
      "上": 1448,
      "下": 1449,
      "不": 1450,
      "与": 1451,
      "世": 1452,
      "业": 1453,
      "东": 1454,
      "中": 1455,
      "丸": 1456,
      "丹": 1457,
      "主": 1458,
      "丼": 1459,
      "义": 1460,
      "之": 1461,
      "乒": 1462,
      "乓": 1463,
      "九": 1464,
      "乡": 1465,
      "书": 1466,
      "争": 1467,
      "事": 1468,
      "二": 1469,
      "云": 1470,
      "五": 1471,
      "亜": 1472,
      "产": 1473,
      "京": 1474,
      "人": 1475,
      "仁": 1476,
      "仇": 1477,
      "今": 1478,
      "介": 1479,
      "仔": 1480,
      "仕": 1481,
      "他": 1482,
      "代": 1483,
      "仪": 1484,
      "仮": 1485,
      "伐": 1486,
      "会": 1487,
      "伝": 1488,
      "伯": 1489,
      "似": 1490,
      "佐": 1491,
      "体": 1492,
      "何": 1493,
      "佬": 1494,
      "來": 1495,
      "侍": 1496,
      "俄": 1497,
      "信": 1498,
      "候": 1499,
      "倭": 1500,
      "傳": 1501,
      "像": 1502,
      "儉": 1503,
      "元": 1504,
      "先": 1505,
      "光": 1506,
      "克": 1507,
      "免": 1508,
      "兒": 1509,
      "入": 1510,
      "八": 1511,
      "公": 1512,
      "共": 1513,
      "兵": 1514,
      "典": 1515,
      "冶": 1516,
      "凛": 1517,
      "凜": 1518,
      "凹": 1519,
      "分": 1520,
      "切": 1521,
      "刘": 1522,
      "初": 1523,
      "利": 1524,
      "制": 1525,
      "前": 1526,
      "剎": 1527,
      "剑": 1528,
      "劇": 1529,
      "劉": 1530,
      "力": 1531,
      "加": 1532,
      "动": 1533,
      "動": 1534,
      "包": 1535,
      "北": 1536,
      "匠": 1537,
      "区": 1538,
      "十": 1539,
      "千": 1540,
      "卅": 1541,
      "半": 1542,
      "卌": 1543,
      "卍": 1544,
      "卐": 1545,
      "南": 1546,
      "博": 1547,
      "卫": 1548,
      "印": 1549,
      "厘": 1550,
      "又": 1551,
      "双": 1552,
      "发": 1553,
      "受": 1554,
      "叠": 1555,
      "口": 1556,
      "古": 1557,
      "只": 1558,
      "可": 1559,
      "右": 1560,
      "司": 1561,
      "合": 1562,
      "吉": 1563,
      "同": 1564,
      "名": 1565,
      "后": 1566,
      "吐": 1567,
      "君": 1568,
      "呣": 1569,
      "周": 1570,
      "味": 1571,
      "呷": 1572,
      "咊": 1573,
      "和": 1574,
      "唐": 1575,
      "唔": 1576,
      "問": 1577,
      "善": 1578,
      "喜": 1579,
      "嘉": 1580,
      "器": 1581,
      "囍": 1582,
      "四": 1583,
      "団": 1584,
      "国": 1585,
      "图": 1586,
      "圆": 1587,
      "國": 1588,
      "圕": 1589,
      "圖": 1590,
      "土": 1591,
      "地": 1592,
      "块": 1593,
      "坤": 1594,
      "坪": 1595,
      "垂": 1596,
      "城": 1597,
      "域": 1598,
      "埠": 1599,
      "基": 1600,
      "堂": 1601,
      "報": 1602,
      "場": 1603,
      "塊": 1604,
      "境": 1605,
      "士": 1606,
      "変": 1607,
      "复": 1608,
      "多": 1609,
      "大": 1610,
      "天": 1611,
      "太": 1612,
      "夷": 1613,
      "奉": 1614,
      "奐": 1615,
      "女": 1616,
      "奴": 1617,
      "她": 1618,
      "妹": 1619,
      "始": 1620,
      "姫": 1621,
      "婆": 1622,
      "婎": 1623,
      "媠": 1624,
      "媽": 1625,
      "子": 1626,
      "字": 1627,
      "孤": 1628,
      "学": 1629,
      "宁": 1630,
      "它": 1631,
      "宅": 1632,
      "宇": 1633,
      "守": 1634,
      "安": 1635,
      "宗": 1636,
      "家": 1637,
      "富": 1638,
      "寧": 1639,
      "審": 1640,
      "对": 1641,
      "导": 1642,
      "将": 1643,
      "尉": 1644,
      "導": 1645,
      "小": 1646,
      "屈": 1647,
      "屋": 1648,
      "展": 1649,
      "属": 1650,
      "山": 1651,
      "岛": 1652,
      "岡": 1653,
      "岩": 1654,
      "島": 1655,
      "崎": 1656,
      "嵐": 1657,
      "嶋": 1658,
      "川": 1659,
      "州": 1660,
      "巡": 1661,
      "工": 1662,
      "左": 1663,
      "巴": 1664,
      "币": 1665,
      "市": 1666,
      "布": 1667,
      "帝": 1668,
      "帥": 1669,
      "带": 1670,
      "師": 1671,
      "常": 1672,
      "幕": 1673,
      "平": 1674,
      "年": 1675,
      "庁": 1676,
      "庆": 1677,
      "库": 1678,
      "府": 1679,
      "庫": 1680,
      "康": 1681,
      "廚": 1682,
      "廷": 1683,
      "建": 1684,
      "廿": 1685,
      "开": 1686,
      "弁": 1687,
      "弘": 1688,
      "張": 1689,
      "当": 1690,
      "形": 1691,
      "影": 1692,
      "征": 1693,
      "後": 1694,
      "徒": 1695,
      "從": 1696,
      "御": 1697,
      "心": 1698,
      "忒": 1699,
      "志": 1700,
      "快": 1701,
      "思": 1702,
      "总": 1703,
      "恢": 1704,
      "息": 1705,
      "惡": 1706,
      "惰": 1707,
      "愛": 1708,
      "慈": 1709,
      "憂": 1710,
      "懸": 1711,
      "成": 1712,
      "战": 1713,
      "戦": 1714,
      "戰": 1715,
      "手": 1716,
      "才": 1717,
      "批": 1718,
      "技": 1719,
      "把": 1720,
      "投": 1721,
      "抗": 1722,
      "折": 1723,
      "拉": 1724,
      "拼": 1725,
      "拿": 1726,
      "指": 1727,
      "按": 1728,
      "挑": 1729,
      "捨": 1730,
      "提": 1731,
      "援": 1732,
      "摩": 1733,
      "撃": 1734,
      "撫": 1735,
      "撲": 1736,
      "擂": 1737,
      "擬": 1738,
      "支": 1739,
      "政": 1740,
      "教": 1741,
      "敢": 1742,
      "数": 1743,
      "文": 1744,
      "斗": 1745,
      "料": 1746,
      "斤": 1747,
      "斬": 1748,
      "斯": 1749,
      "新": 1750,
      "方": 1751,
      "於": 1752,
      "族": 1753,
      "日": 1754,
      "旧": 1755,
      "旨": 1756,
      "昇": 1757,
      "昌": 1758,
      "明": 1759,
      "星": 1760,
      "春": 1761,
      "時": 1762,
      "普": 1763,
      "曲": 1764,
      "書": 1765,
      "曹": 1766,
      "替": 1767,
      "月": 1768,
      "有": 1769,
      "朝": 1770,
      "木": 1771,
      "本": 1772,
      "术": 1773,
      "朱": 1774,
      "李": 1775,
      "村": 1776,
      "杜": 1777,
      "来": 1778,
      "杭": 1779,
      "東": 1780,
      "杷": 1781,
      "松": 1782,
      "枇": 1783,
      "林": 1784,
      "枝": 1785,
      "柑": 1786,
      "柳": 1787,
      "柿": 1788,
      "栄": 1789,
      "校": 1790,
      "根": 1791,
      "桂": 1792,
      "案": 1793,
      "桐": 1794,
      "桓": 1795,
      "梁": 1796,
      "椒": 1797,
      "楊": 1798,
      "楔": 1799,
      "業": 1800,
      "槐": 1801,
      "様": 1802,
      "樂": 1803,
      "標": 1804,
      "橋": 1805,
      "機": 1806,
      "檀": 1807,
      "欖": 1808,
      "次": 1809,
      "歌": 1810,
      "正": 1811,
      "武": 1812,
      "毋": 1813,
      "比": 1814,
      "毛": 1815,
      "毫": 1816,
      "氏": 1817,
      "民": 1818,
      "水": 1819,
      "氵": 1820,
      "汉": 1821,
      "江": 1822,
      "汤": 1823,
      "汶": 1824,
      "沐": 1825,
      "沖": 1826,
      "沙": 1827,
      "河": 1828,
      "治": 1829,
      "泉": 1830,
      "法": 1831,
      "泥": 1832,
      "洞": 1833,
      "洲": 1834,
      "活": 1835,
      "流": 1836,
      "济": 1837,
      "浙": 1838,
      "浦": 1839,
      "海": 1840,
      "淨": 1841,
      "淮": 1842,
      "清": 1843,
      "済": 1844,
      "渣": 1845,
      "渤": 1846,
      "港": 1847,
      "湖": 1848,
      "湯": 1849,
      "準": 1850,
      "溝": 1851,
      "溫": 1852,
      "滑": 1853,
      "漢": 1854,
      "漳": 1855,
      "潮": 1856,
      "澄": 1857,
      "火": 1858,
      "灾": 1859,
      "炉": 1860,
      "為": 1861,
      "烏": 1862,
      "焼": 1863,
      "熏": 1864,
      "爭": 1865,
      "爱": 1866,
      "父": 1867,
      "片": 1868,
      "牠": 1869,
      "特": 1870,
      "猫": 1871,
      "献": 1872,
      "獻": 1873,
      "王": 1874,
      "现": 1875,
      "珊": 1876,
      "球": 1877,
      "理": 1878,
      "琵": 1879,
      "琶": 1880,
      "瑚": 1881,
      "瓦": 1882,
      "瓩": 1883,
      "用": 1884,
      "甫": 1885,
      "田": 1886,
      "町": 1887,
      "番": 1888,
      "異": 1889,
      "白": 1890,
      "的": 1891,
      "皆": 1892,
      "皇": 1893,
      "皮": 1894,
      "盛": 1895,
      "盧": 1896,
      "相": 1897,
      "省": 1898,
      "督": 1899,
      "知": 1900,
      "石": 1901,
      "砂": 1902,
      "研": 1903,
      "礻": 1904,
      "社": 1905,
      "祂": 1906,
      "祐": 1907,
      "神": 1908,
      "祥": 1909,
      "禅": 1910,
      "福": 1911,
      "秀": 1912,
      "秋": 1913,
      "种": 1914,
      "秣": 1915,
      "程": 1916,
      "種": 1917,
      "穀": 1918,
      "究": 1919,
      "突": 1920,
      "立": 1921,
      "竜": 1922,
      "章": 1923,
      "竹": 1924,
      "第": 1925,
      "算": 1926,
      "節": 1927,
      "篆": 1928,
      "籲": 1929,
      "米": 1930,
      "粁": 1931,
      "粵": 1932,
      "精": 1933,
      "糎": 1934,
      "系": 1935,
      "紀": 1936,
      "約": 1937,
      "紅": 1938,
      "納": 1939,
      "紐": 1940,
      "紫": 1941,
      "紹": 1942,
      "組": 1943,
      "統": 1944,
      "經": 1945,
      "綠": 1946,
      "維": 1947,
      "総": 1948,
      "緑": 1949,
      "緣": 1950,
      "緩": 1951,
      "縣": 1952,
      "總": 1953,
      "繁": 1954,
      "織": 1955,
      "红": 1956,
      "绍": 1957,
      "经": 1958,
      "统": 1959,
      "维": 1960,
      "羊": 1961,
      "美": 1962,
      "義": 1963,
      "羽": 1964,
      "習": 1965,
      "考": 1966,
      "耶": 1967,
      "耿": 1968,
      "聲": 1969,
      "肉": 1970,
      "胡": 1971,
      "腐": 1972,
      "腹": 1973,
      "膺": 1974,
      "臣": 1975,
      "臨": 1976,
      "自": 1977,
      "興": 1978,
      "舍": 1979,
      "航": 1980,
      "船": 1981,
      "良": 1982,
      "节": 1983,
      "花": 1984,
      "苏": 1985,
      "苗": 1986,
      "若": 1987,
      "英": 1988,
      "茂": 1989,
      "茅": 1990,
      "茴": 1991,
      "茶": 1992,
      "草": 1993,
      "菌": 1994,
      "菜": 1995,
      "菩": 1996,
      "華": 1997,
      "萨": 1998,
      "董": 1999,
      "蒲": 2000,
      "蔣": 2001,
      "蔻": 2002,
      "蕃": 2003,
      "蕎": 2004,
      "薩": 2005,
      "藍": 2006,
      "藏": 2007,
      "藝": 2008,
      "藨": 2009,
      "藩": 2010,
      "虎": 2011,
      "虫": 2012,
      "蜀": 2013,
      "蝴": 2014,
      "蝶": 2015,
      "術": 2016,
      "衛": 2017,
      "表": 2018,
      "裙": 2019,
      "補": 2020,
      "西": 2021,
      "覆": 2022,
      "見": 2023,
      "親": 2024,
      "角": 2025,
      "言": 2026,
      "計": 2027,
      "詞": 2028,
      "試": 2029,
      "話": 2030,
      "誌": 2031,
      "語": 2032,
      "説": 2033,
      "議": 2034,
      "護": 2035,
      "讀": 2036,
      "變": 2037,
      "计": 2038,
      "让": 2039,
      "试": 2040,
      "话": 2041,
      "语": 2042,
      "谷": 2043,
      "豆": 2044,
      "豊": 2045,
      "豔": 2046,
      "財": 2047,
      "貢": 2048,
      "賽": 2049,
      "财": 2050,
      "起": 2051,
      "越": 2052,
      "趙": 2053,
      "足": 2054,
      "跑": 2055,
      "路": 2056,
      "身": 2057,
      "軍": 2058,
      "轎": 2059,
      "运": 2060,
      "迩": 2061,
      "通": 2062,
      "逸": 2063,
      "運": 2064,
      "過": 2065,
      "道": 2066,
      "達": 2067,
      "邑": 2068,
      "那": 2069,
      "郎": 2070,
      "部": 2071,
      "郷": 2072,
      "都": 2073,
      "鄴": 2074,
      "醂": 2075,
      "醬": 2076,
      "釁": 2077,
      "重": 2078,
      "野": 2079,
      "金": 2080,
      "針": 2081,
      "鈴": 2082,
      "銃": 2083,
      "銅": 2084,
      "銖": 2085,
      "鋪": 2086,
      "錢": 2087,
      "钱": 2088,
      "铜": 2089,
      "铺": 2090,
      "長": 2091,
      "长": 2092,
      "門": 2093,
      "閏": 2094,
      "閥": 2095,
      "閩": 2096,
      "關": 2097,
      "门": 2098,
      "问": 2099,
      "闽": 2100,
      "阮": 2101,
      "陋": 2102,
      "院": 2103,
      "陳": 2104,
      "陵": 2105,
      "陸": 2106,
      "陽": 2107,
      "際": 2108,
      "隣": 2109,
      "隶": 2110,
      "隸": 2111,
      "雄": 2112,
      "集": 2113,
      "雍": 2114,
      "雙": 2115,
      "雨": 2116,
      "雲": 2117,
      "雷": 2118,
      "震": 2119,
      "霧": 2120,
      "青": 2121,
      "韓": 2122,
      "韩": 2123,
      "音": 2124,
      "頓": 2125,
      "題": 2126,
      "顯": 2127,
      "顿": 2128,
      "题": 2129,
      "风": 2130,
      "食": 2131,
      "館": 2132,
      "香": 2133,
      "馬": 2134,
      "騷": 2135,
      "驗": 2136,
      "验": 2137,
      "髀": 2138,
      "體": 2139,
      "高": 2140,
      "鬱": 2141,
      "魂": 2142,
      "魄": 2143,
      "魏": 2144,
      "鮮": 2145,
      "鱻": 2146,
      "鲁": 2147,
      "鲜": 2148,
      "鳥": 2149,
      "鴉": 2150,
      "麦": 2151,
      "麹": 2152,
      "麻": 2153,
      "黄": 2154,
      "齉": 2155,
      "龍": 2156,
      "龘": 2157,
      "龢": 2158,
      "ꀕ": 2159,
      "ꜣ": 2160,
      "ꦗ": 2161,
      "ꦮ": 2162,
      "개": 2163,
      "계": 2164,
      "고": 2165,
      "공": 2166,
      "교": 2167,
      "국": 2168,
      "그": 2169,
      "기": 2170,
      "나": 2171,
      "대": 2172,
      "도": 2173,
      "독": 2174,
      "동": 2175,
      "된": 2176,
      "라": 2177,
      "람": 2178,
      "래": 2179,
      "려": 2180,
      "로": 2181,
      "름": 2182,
      "리": 2183,
      "립": 2184,
      "메": 2185,
      "명": 2186,
      "무": 2187,
      "문": 2188,
      "물": 2189,
      "미": 2190,
      "방": 2191,
      "법": 2192,
      "별": 2193,
      "보": 2194,
      "본": 2195,
      "부": 2196,
      "비": 2197,
      "사": 2198,
      "산": 2199,
      "서": 2200,
      "선": 2201,
      "성": 2202,
      "소": 2203,
      "수": 2204,
      "술": 2205,
      "슈": 2206,
      "스": 2207,
      "시": 2208,
      "신": 2209,
      "아": 2210,
      "역": 2211,
      "예": 2212,
      "우": 2213,
      "울": 2214,
      "원": 2215,
      "위": 2216,
      "을": 2217,
      "이": 2218,
      "인": 2219,
      "일": 2220,
      "작": 2221,
      "장": 2222,
      "쟁": 2223,
      "전": 2224,
      "조": 2225,
      "족": 2226,
      "지": 2227,
      "직": 2228,
      "추": 2229,
      "컴": 2230,
      "큰": 2231,
      "탕": 2232,
      "토": 2233,
      "통": 2234,
      "특": 2235,
      "파": 2236,
      "퍼": 2237,
      "플": 2238,
      "하": 2239,
      "한": 2240,
      "할": 2241,
      "합": 2242,
      "해": 2243,
      "현": 2244,
      "회": 2245,
      "": 2246,
      "": 2247,
      "": 2248,
      "": 2249,
      "": 2250,
      "": 2251,
      "": 2252,
      "": 2253,
      "": 2254,
      "": 2255,
      "": 2256,
      "": 2257,
      "": 2258,
      "": 2259,
      "": 2260,
      "": 2261,
      "": 2262,
      "": 2263,
      "": 2264,
      "": 2265,
      "": 2266,
      "": 2267,
      "": 2268,
      "": 2269,
      "": 2270,
      "ﬀ": 2271,
      "ﬁ": 2272,
      "ﬂ": 2273,
      "וּ": 2274,
      "וֹ": 2275,
      "ﷺ": 2276,
      "﷼": 2277,
      "︘": 2278,
      "︢": 2279,
      "﻿": 2280,
      "（": 2281,
      "）": 2282,
      "，": 2283,
      "：": 2284,
      "～": 2285,
      "�": 2286,
      "𐀊": 2287,
      "𐀍": 2288,
      "𐀚": 2289,
      "𐀞": 2290,
      "𐌚": 2291,
      "𐌠": 2292,
      "𐌡": 2293,
      "𐌢": 2294,
      "𐤃": 2295,
      "𐤍": 2296,
      "𐤑": 2297,
      "𐰃": 2298,
      "𐰣": 2299,
      "𐰭": 2300,
      "𐰴": 2301,
      "𐰼": 2302,
      "𐱅": 2303,
      "𒂵": 2304,
      "𒄑": 2305,
      "𒆳": 2306,
      "𒈪": 2307,
      "𒊒": 2308,
      "𒊕": 2309,
      "𒌦": 2310,
      "👊": 2311,
      "𠔻": 2312,
      "𪚥": 2313,
      "𪜶": 2314,
      "he": 2315,
      "in": 2316,
      "an": 2317,
      "the": 2318,
      "er": 2319,
      "on": 2320,
      "re": 2321,
      "at": 2322,
      "or": 2323,
      "ed": 2324,
      "en": 2325,
      "is": 2326,
      "al": 2327,
      "it": 2328,
      "as": 2329,
      "es": 2330,
      "ar": 2331,
      "and": 2332,
      "of": 2333,
      "to": 2334,
      "ou": 2335,
      "ing": 2336,
      "ic": 2337,
      "th": 2338,
      "st": 2339,
      "om": 2340,
      "le": 2341,
      "ion": 2342,
      "ent": 2343,
      "il": 2344,
      "id": 2345,
      "se": 2346,
      "ac": 2347,
      "ad": 2348,
      "ol": 2349,
      "be": 2350,
      "am": 2351,
      "ly": 2352,
      "ro": 2353,
      "ch": 2354,
      "ve": 2355,
      "for": 2356,
      "was": 2357,
      "ay": 2358,
      "im": 2359,
      "ter": 2360,
      "The": 2361,
      "ow": 2362,
      "ver": 2363,
      "ur": 2364,
      "ir": 2365,
      "ig": 2366,
      "un": 2367,
      "wh": 2368,
      "ation": 2369,
      "ut": 2370,
      "ce": 2371,
      "us": 2372,
      "ith": 2373,
      "ot": 2374,
      "his": 2375,
      "el": 2376,
      "tr": 2377,
      "are": 2378,
      "ag": 2379,
      "that": 2380,
      "op": 2381,
      "ul": 2382,
      "et": 2383,
      "with": 2384,
      "con": 2385,
      "fr": 2386,
      "de": 2387,
      "mo": 2388,
      "ab": 2389,
      "ct": 2390,
      "oun": 2391,
      "ap": 2392,
      "li": 2393,
      "ne": 2394,
      "ther": 2395,
      "ld": 2396,
      "est": 2397,
      "com": 2398,
      "all": 2399,
      "by": 2400,
      "pe": 2401,
      "res": 2402,
      "em": 2403,
      "lo": 2404,
      "ain": 2405,
      "su": 2406,
      "ts": 2407,
      "ate": 2408,
      "ill": 2409,
      "ers": 2410,
      "man": 2411,
      "so": 2412,
      "ity": 2413,
      "ke": 2414,
      "from": 2415,
      "pl": 2416,
      "sa": 2417,
      "pro": 2418,
      "one": 2419,
      "ex": 2420,
      "ha": 2421,
      "her": 2422,
      "ear": 2423,
      "di": 2424,
      "our": 2425,
      "art": 2426,
      "out": 2427,
      "ies": 2428,
      "od": 2429,
      "sh": 2430,
      "In": 2431,
      "igh": 2432,
      "00": 2433,
      "wor": 2434,
      "ri": 2435,
      "19": 2436,
      "ment": 2437,
      "te": 2438,
      "cl": 2439,
      "ess": 2440,
      "ant": 2441,
      "end": 2442,
      "gh": 2443,
      "ich": 2444,
      "ist": 2445,
      "fe": 2446,
      "said": 2447,
      "ci": 2448,
      "per": 2449,
      "ally": 2450,
      "ome": 2451,
      "we": 2452,
      "po": 2453,
      "ast": 2454,
      "um": 2455,
      "ame": 2456,
      "ive": 2457,
      "gr": 2458,
      "do": 2459,
      "ge": 2460,
      "qu": 2461,
      "not": 2462,
      "wer": 2463,
      "had": 2464,
      "has": 2465,
      "ard": 2466,
      "ia": 2467,
      "go": 2468,
      "ould": 2469,
      "day": 2470,
      "Wh": 2471,
      "He": 2472,
      "hen": 2473,
      "have": 2474,
      "der": 2475,
      "pr": 2476,
      "ian": 2477,
      "ong": 2478,
      "but": 2479,
      "ound": 2480,
      "co": 2481,
      "ud": 2482,
      "ough": 2483,
      "ated": 2484,
      "were": 2485,
      "ber": 2486,
      "up": 2487,
      "ok": 2488,
      "af": 2489,
      "Ch": 2490,
      "au": 2491,
      "por": 2492,
      "who": 2493,
      "year": 2494,
      "which": 2495,
      "she": 2496,
      "ak": 2497,
      "It": 2498,
      "ish": 2499,
      "own": 2500,
      "bo": 2501,
      "ack": 2502,
      "me": 2503,
      "if": 2504,
      "mer": 2505,
      "ary": 2506,
      "ust": 2507,
      "ous": 2508,
      "ight": 2509,
      "other": 2510,
      "act": 2511,
      "ide": 2512,
      ".\"": 2513,
      "age": 2514,
      "red": 2515,
      "rit": 2516,
      "they": 2517,
      "ine": 2518,
      "bl": 2519,
      "tim": 2520,
      "ell": 2521,
      "ass": 2522,
      "its": 2523,
      ",\"": 2524,
      "ev": 2525,
      "fo": 2526,
      "their": 2527,
      "land": 2528,
      "ind": 2529,
      "fir": 2530,
      "sp": 2531,
      "ice": 2532,
      "ical": 2533,
      "av": 2534,
      "ran": 2535,
      "cent": 2536,
      "iv": 2537,
      "him": 2538,
      "can": 2539,
      "An": 2540,
      "Un": 2541,
      "St": 2542,
      "ren": 2543,
      "ree": 2544,
      "ie": 2545,
      "very": 2546,
      "comp": 2547,
      "first": 2548,
      "old": 2549,
      "wo": 2550,
      "also": 2551,
      "aw": 2552,
      "ip": 2553,
      "off": 2554,
      "you": 2555,
      "ure": 2556,
      "part": 2557,
      "ans": 2558,
      "ck": 2559,
      "did": 2560,
      "iz": 2561,
      "ang": 2562,
      "kn": 2563,
      "--": 2564,
      "20": 2565,
      "ions": 2566,
      "port": 2567,
      "most": 2568,
      "work": 2569,
      "ence": 2570,
      "ates": 2571,
      "ma": 2572,
      "this": 2573,
      "about": 2574,
      "been": 2575,
      "more": 2576,
      "cor": 2577,
      "after": 2578,
      "ep": 2579,
      "br": 2580,
      "any": 2581,
      "ial": 2582,
      "ace": 2583,
      "form": 2584,
      "What": 2585,
      "what": 2586,
      "mon": 2587,
      "when": 2588,
      "time": 2589,
      "my": 2590,
      "no": 2591,
      "ople": 2592,
      "some": 2593,
      "coun": 2594,
      "dis": 2595,
      "ach": 2596,
      "over": 2597,
      "new": 2598,
      "ater": 2599,
      "ph": 2600,
      "ty": 2601,
      "ory": 2602,
      "ited": 2603,
      "ue": 2604,
      "pres": 2605,
      "ite": 2606,
      "hed": 2607,
      "cho": 2608,
      "cre": 2609,
      "fer": 2610,
      "ign": 2611,
      "people": 2612,
      "here": 2613,
      "tern": 2614,
      "vel": 2615,
      "ild": 2616,
      "ser": 2617,
      "ult": 2618,
      "str": 2619,
      "bec": 2620,
      "vers": 2621,
      "many": 2622,
      "ays": 2623,
      "pol": 2624,
      "would": 2625,
      "att": 2626,
      "into": 2627,
      "than": 2628,
      "ade": 2629,
      "ile": 2630,
      "lar": 2631,
      "18": 2632,
      "ations": 2633,
      "ition": 2634,
      "ved": 2635,
      "two": 2636,
      "ll": 2637,
      "200": 2638,
      "them": 2639,
      "used": 2640,
      "),": 2641,
      "ew": 2642,
      "able": 2643,
      "ten": 2644,
      "low": 2645,
      "pt": 2646,
      "du": 2647,
      "ict": 2648,
      "incl": 2649,
      "play": 2650,
      "thing": 2651,
      "ry": 2652,
      "ick": 2653,
      "She": 2654,
      "Amer": 2655,
      "ubl": 2656,
      "og": 2657,
      "ident": 2658,
      "ily": 2659,
      "Americ": 2660,
      "will": 2661,
      "col": 2662,
      "pre": 2663,
      "years": 2664,
      "sy": 2665,
      "pop": 2666,
      "int": 2667,
      "like": 2668,
      "spe": 2669,
      "reat": 2670,
      "there": 2671,
      "ob": 2672,
      "ational": 2673,
      "try": 2674,
      "get": 2675,
      "world": 2676,
      "pos": 2677,
      "ark": 2678,
      "min": 2679,
      "cont": 2680,
      "fore": 2681,
      "ire": 2682,
      "ra": 2683,
      "Th": 2684,
      "ors": 2685,
      "call": 2686,
      "ction": 2687,
      "201": 2688,
      "fin": 2689,
      "ble": 2690,
      "ath": 2691,
      "chool": 2692,
      "ning": 2693,
      "fam": 2694,
      "En": 2695,
      "bet": 2696,
      "popul": 2697,
      "cord": 2698,
      "Jo": 2699,
      "uring": 2700,
      "cess": 2701,
      "ance": 2702,
      "reg": 2703,
      "app": 2704,
      "city": 2705,
      "Ar": 2706,
      "Al": 2707,
      "gan": 2708,
      "ces": 2709,
      "row": 2710,
      "ced": 2711,
      "amp": 2712,
      "os": 2713,
      "gen": 2714,
      "could": 2715,
      "ents": 2716,
      "cr": 2717,
      "med": 2718,
      "New": 2719,
      "As": 2720,
      "che": 2721,
      "des": 2722,
      "ince": 2723,
      "ens": 2724,
      "though": 2725,
      "ase": 2726,
      "vis": 2727,
      "fa": 2728,
      "hel": 2729,
      "ful": 2730,
      "how": 2731,
      "sel": 2732,
      "car": 2733,
      "fl": 2734,
      "gl": 2735,
      "found": 2736,
      "ters": 2737,
      "But": 2738,
      "only": 2739,
      "ele": 2740,
      "CN": 2741,
      "ause": 2742,
      "son": 2743,
      "ake": 2744,
      "such": 2745,
      "use": 2746,
      "United": 2747,
      "CNN": 2748,
      "home": 2749,
      "long": 2750,
      "urn": 2751,
      "where": 2752,
      "rel": 2753,
      ").": 2754,
      "under": 2755,
      "rough": 2756,
      "includ": 2757,
      "ink": 2758,
      "known": 2759,
      "They": 2760,
      "gest": 2761,
      "ug": 2762,
      "arch": 2763,
      "school": 2764,
      "ving": 2765,
      "ities": 2766,
      "char": 2767,
      "bor": 2768,
      "ury": 2769,
      "ious": 2770,
      "back": 2771,
      "cond": 2772,
      "ublic": 2773,
      "made": 2774,
      "ivers": 2775,
      "led": 2776,
      "outh": 2777,
      "inter": 2778,
      "ever": 2779,
      "fri": 2780,
      "oup": 2781,
      "cial": 2782,
      "bu": 2783,
      "ics": 2784,
      "ked": 2785,
      "now": 2786,
      "ef": 2787,
      "name": 2788,
      "don": 2789,
      "main": 2790,
      "dif": 2791,
      "friend": 2792,
      "les": 2793,
      "state": 2794,
      "inv": 2795,
      "cap": 2796,
      "child": 2797,
      "si": 2798,
      "called": 2799,
      "ho": 2800,
      "ased": 2801,
      "How": 2802,
      "just": 2803,
      "ins": 2804,
      "als": 2805,
      "itt": 2806,
      "tain": 2807,
      "way": 2808,
      "come": 2809,
      "ann": 2810,
      "ek": 2811,
      "iss": 2812,
      "three": 2813,
      "help": 2814,
      "Brit": 2815,
      "cer": 2816,
      "uch": 2817,
      "When": 2818,
      "through": 2819,
      "read": 2820,
      "olog": 2821,
      "cons": 2822,
      "ism": 2823,
      "ouse": 2824,
      "sm": 2825,
      "air": 2826,
      "then": 2827,
      "stud": 2828,
      "ied": 2829,
      "cur": 2830,
      "ings": 2831,
      "nor": 2832,
      "well": 2833,
      "dr": 2834,
      "set": 2835,
      "ween": 2836,
      "comm": 2837,
      "top": 2838,
      "ital": 2839,
      "cted": 2840,
      "ating": 2841,
      "par": 2842,
      "American": 2843,
      "life": 2844,
      "oc": 2845,
      "ative": 2846,
      "mem": 2847,
      "illion": 2848,
      "let": 2849,
      "De": 2850,
      "look": 2851,
      "offic": 2852,
      "before": 2853,
      "self": 2854,
      "between": 2855,
      "leg": 2856,
      "000": 2857,
      "writ": 2858,
      "For": 2859,
      "last": 2860,
      "want": 2861,
      "Chin": 2862,
      "again": 2863,
      "ys": 2864,
      "mus": 2865,
      "unt": 2866,
      "every": 2867,
      "ven": 2868,
      "produ": 2869,
      "went": 2870,
      "because": 2871,
      "gover": 2872,
      "Nor": 2873,
      "ss": 2874,
      "during": 2875,
      "stem": 2876,
      "States": 2877,
      "ished": 2878,
      "This": 2879,
      "Is": 2880,
      "down": 2881,
      "hn": 2882,
      "uro": 2883,
      "ton": 2884,
      "told": 2885,
      "sur": 2886,
      "ub": 2887,
      "ves": 2888,
      "family": 2889,
      "lead": 2890,
      "eral": 2891,
      "fil": 2892,
      "tal": 2893,
      "sub": 2894,
      "We": 2895,
      "ms": 2896,
      "may": 2897,
      "ress": 2898,
      "num": 2899,
      "country": 2900,
      "ose": 2901,
      "ames": 2902,
      "And": 2903,
      "add": 2904,
      "ual": 2905,
      "Be": 2906,
      "10": 2907,
      "cour": 2908,
      "velop": 2909,
      "does": 2910,
      "clo": 2911,
      "Re": 2912,
      "became": 2913,
      "know": 2914,
      "bro": 2915,
      "aking": 2916,
      "your": 2917,
      "head": 2918,
      "loc": 2919,
      "even": 2920,
      "angu": 2921,
      "turn": 2922,
      "cle": 2923,
      "ah": 2924,
      "je": 2925,
      "see": 2926,
      "make": 2927,
      "show": 2928,
      "much": 2929,
      "John": 2930,
      "while": 2931,
      "century": 2932,
      "iversity": 2933,
      "Euro": 2934,
      "ese": 2935,
      "group": 2936,
      "stand": 2937,
      "second": 2938,
      "start": 2939,
      "Fran": 2940,
      "gu": 2941,
      "book": 2942,
      "says": 2943,
      "fol": 2944,
      "four": 2945,
      "Com": 2946,
      "ave": 2947,
      "17": 2948,
      "govern": 2949,
      "being": 2950,
      "ward": 2951,
      "ered": 2952,
      "ments": 2953,
      "ral": 2954,
      "cy": 2955,
      "ually": 2956,
      "contr": 2957,
      "Le": 2958,
      "Con": 2959,
      "war": 2960,
      "week": 2961,
      "langu": 2962,
      "around": 2963,
      "ail": 2964,
      "ort": 2965,
      "hist": 2966,
      "put": 2967,
      "sing": 2968,
      "199": 2969,
      "dom": 2970,
      "ise": 2971,
      "So": 2972,
      "At": 2973,
      "ball": 2974,
      "fi": 2975,
      "peri": 2976,
      "polit": 2977,
      "develop": 2978,
      "Europe": 2979,
      "ash": 2980,
      "sup": 2981,
      "system": 2982,
      "largest": 2983,
      "erson": 2984,
      "ists": 2985,
      "15": 2986,
      "good": 2987,
      "ution": 2988,
      "differ": 2989,
      "class": 2990,
      "az": 2991,
      "Af": 2992,
      "cording": 2993,
      "high": 2994,
      "including": 2995,
      "ale": 2996,
      "ific": 2997,
      "ship": 2998,
      "hu": 2999,
      "got": 3000,
      "area": 3001,
      "Se": 3002,
      "ason": 3003,
      "dec": 3004,
      "prov": 3005,
      "million": 3006,
      "No": 3007,
      "\",": 3008,
      "happ": 3009,
      "On": 3010,
      "jor": 3011,
      "later": 3012,
      "io": 3013,
      "\".": 3014,
      "Mo": 3015,
      "ds": 3016,
      "eng": 3017,
      "ner": 3018,
      "ures": 3019,
      "vie": 3020,
      "Ger": 3021,
      "since": 3022,
      "ants": 3023,
      "cri": 3024,
      "ting": 3025,
      "aren": 3026,
      "king": 3027,
      "ared": 3028,
      "fic": 3029,
      "mp": 3030,
      "cts": 3031,
      "follow": 3032,
      "Ro": 3033,
      "need": 3034,
      "Mar": 3035,
      "ized": 3036,
      "Sp": 3037,
      "great": 3038,
      "pow": 3039,
      "oman": 3040,
      "less": 3041,
      "both": 3042,
      "rest": 3043,
      "came": 3044,
      "glish": 3045,
      "run": 3046,
      "law": 3047,
      "Chr": 3048,
      "fun": 3049,
      "ft": 3050,
      "English": 3051,
      "took": 3052,
      "16": 3053,
      "trans": 3054,
      "mother": 3055,
      "ular": 3056,
      "mil": 3057,
      "enn": 3058,
      "ork": 3059,
      "British": 3060,
      "children": 3061,
      "men": 3062,
      "government": 3063,
      "ural": 3064,
      "ages": 3065,
      "house": 3066,
      "major": 3067,
      "His": 3068,
      "person": 3069,
      "There": 3070,
      "often": 3071,
      "say": 3072,
      "music": 3073,
      "until": 3074,
      "think": 3075,
      "appe": 3076,
      "these": 3077,
      "mar": 3078,
      "Pr": 3079,
      "mat": 3080,
      "contin": 3081,
      "still": 3082,
      "emp": 3083,
      "public": 3084,
      "early": 3085,
      "amed": 3086,
      "stit": 3087,
      "father": 3088,
      "win": 3089,
      "cut": 3090,
      "jo": 3091,
      "vi": 3092,
      "number": 3093,
      "met": 3094,
      "small": 3095,
      "population": 3096,
      "ctor": 3097,
      "take": 3098,
      "War": 3099,
      "stru": 3100,
      "bre": 3101,
      "Bo": 3102,
      "dep": 3103,
      "organ": 3104,
      "ody": 3105,
      "month": 3106,
      "After": 3107,
      "mark": 3108,
      "bus": 3109,
      "Wor": 3110,
      "ext": 3111,
      "serv": 3112,
      "Who": 3113,
      "each": 3114,
      "Li": 3115,
      "sign": 3116,
      "..": 3117,
      "ted": 3118,
      "won": 3119,
      "suc": 3120,
      "ped": 3121,
      "ways": 3122,
      "going": 3123,
      "ically": 3124,
      "gy": 3125,
      "ime": 3126,
      "Car": 3127,
      "pon": 3128,
      "12": 3129,
      "sever": 3130,
      "augh": 3131,
      "ross": 3132,
      "York": 3133,
      "near": 3134,
      "hand": 3135,
      "kill": 3136,
      "bed": 3137,
      "oung": 3138,
      "hy": 3139,
      "198": 3140,
      "gre": 3141,
      "50": 3142,
      "sto": 3143,
      "different": 3144,
      "place": 3145,
      "began": 3146,
      "ided": 3147,
      "King": 3148,
      "soci": 3149,
      "sc": 3150,
      "ib": 3151,
      "Her": 3152,
      "var": 3153,
      "sim": 3154,
      "ude": 3155,
      "present": 3156,
      "oper": 3157,
      "ney": 3158,
      "team": 3159,
      "igin": 3160,
      "Indi": 3161,
      "ittle": 3162,
      "uss": 3163,
      "resident": 3164,
      "tem": 3165,
      "best": 3166,
      "dire": 3167,
      "tra": 3168,
      "Mon": 3169,
      "ple": 3170,
      "ement": 3171,
      "same": 3172,
      "cult": 3173,
      "ica": 3174,
      "cept": 3175,
      "water": 3176,
      "196": 3177,
      "open": 3178,
      "xt": 3179,
      "thor": 3180,
      "World": 3181,
      "uc": 3182,
      "death": 3183,
      "la": 3184,
      "common": 3185,
      "gram": 3186,
      "South": 3187,
      "imes": 3188,
      "Christ": 3189,
      "care": 3190,
      "line": 3191,
      "bers": 3192,
      "Gr": 3193,
      "beli": 3194,
      "ony": 3195,
      "power": 3196,
      "grap": 3197,
      "ature": 3198,
      "big": 3199,
      "One": 3200,
      "197": 3201,
      "University": 3202,
      "against": 3203,
      "ax": 3204,
      "ology": 3205,
      "human": 3206,
      "ste": 3207,
      "ues": 3208,
      "language": 3209,
      "large": 3210,
      "right": 3211,
      "oney": 3212,
      "bir": 3213,
      "30": 3214,
      "ister": 3215,
      "never": 3216,
      "Col": 3217,
      "success": 3218,
      "far": 3219,
      "Fr": 3220,
      "rench": 3221,
      "didn": 3222,
      "friends": 3223,
      "ought": 3224,
      "pri": 3225,
      "pass": 3226,
      "view": 3227,
      "thern": 3228,
      "irl": 3229,
      "wal": 3230,
      "ank": 3231,
      "term": 3232,
      "colle": 3233,
      "thought": 3234,
      "val": 3235,
      "import": 3236,
      "North": 3237,
      "those": 3238,
      "ately": 3239,
      "test": 3240,
      "ore": 3241,
      "ional": 3242,
      "left": 3243,
      "former": 3244,
      "should": 3245,
      "sol": 3246,
      "tow": 3247,
      "Afr": 3248,
      "requ": 3249,
      "lot": 3250,
      "several": 3251,
      "French": 3252,
      "origin": 3253,
      "ged": 3254,
      "find": 3255,
      "cover": 3256,
      "real": 3257,
      "ley": 3258,
      "Pe": 3259,
      "consid": 3260,
      "ternational": 3261,
      "charac": 3262,
      "young": 3263,
      "ired": 3264,
      "light": 3265,
      "den": 3266,
      "?\"": 3267,
      "another": 3268,
      "miss": 3269,
      "depend": 3270,
      "ility": 3271,
      "alth": 3272,
      "commun": 3273,
      "ians": 3274,
      "Aust": 3275,
      "stat": 3276,
      "sci": 3277,
      "days": 3278,
      "Can": 3279,
      "vent": 3280,
      "II": 3281,
      "giv": 3282,
      "record": 3283,
      "too": 3284,
      "body": 3285,
      "14": 3286,
      "US": 3287,
      "asked": 3288,
      "ama": 3289,
      "exp": 3290,
      "based": 3291,
      "Ge": 3292,
      "chan": 3293,
      "trad": 3294,
      "little": 3295,
      "ago": 3296,
      "saw": 3297,
      "del": 3298,
      "point": 3299,
      "uck": 3300,
      "hard": 3301,
      "vision": 3302,
      "ger": 3303,
      "China": 3304,
      "lands": 3305,
      "rele": 3306,
      "ices": 3307,
      "film": 3308,
      "died": 3309,
      "capital": 3310,
      "money": 3311,
      "ised": 3312,
      "fact": 3313,
      "You": 3314,
      "uary": 3315,
      "wanted": 3316,
      "akes": 3317,
      "popular": 3318,
      "mber": 3319,
      "ca": 3320,
      "Mr": 3321,
      "Rep": 3322,
      "next": 3323,
      "gin": 3324,
      "build": 3325,
      "official": 3326,
      "plan": 3327,
      "ons": 3328,
      "ended": 3329,
      "Br": 3330,
      "arn": 3331,
      "town": 3332,
      "five": 3333,
      "food": 3334,
      "ject": 3335,
      "night": 3336,
      "students": 3337,
      "Pro": 3338,
      "ier": 3339,
      "fect": 3340,
      "hour": 3341,
      "company": 3342,
      "aim": 3343,
      "paren": 3344,
      "away": 3345,
      "ars": 3346,
      "ets": 3347,
      "abl": 3348,
      "div": 3349,
      "girl": 3350,
      "ines": 3351,
      "author": 3352,
      "become": 3353,
      "ey": 3354,
      "dog": 3355,
      "iness": 3356,
      "chn": 3357,
      "estern": 3358,
      "remain": 3359,
      "refer": 3360,
      "rent": 3361,
      "Eng": 3362,
      "ety": 3363,
      "lim": 3364,
      "conom": 3365,
      "flu": 3366,
      "Lon": 3367,
      "thir": 3368,
      "ask": 3369,
      "few": 3370,
      "named": 3371,
      "Har": 3372,
      "press": 3373,
      "wide": 3374,
      "City": 3375,
      "und": 3376,
      "urch": 3377,
      "room": 3378,
      "liam": 3379,
      "tries": 3380,
      "prof": 3381,
      "west": 3382,
      "started": 3383,
      "ctr": 3384,
      "mor": 3385,
      "ories": 3386,
      "hal": 3387,
      "move": 3388,
      "Coun": 3389,
      "eld": 3390,
      "partic": 3391,
      "London": 3392,
      "ived": 3393,
      "Co": 3394,
      "BC": 3395,
      "important": 3396,
      "born": 3397,
      "ali": 3398,
      "cus": 3399,
      "ling": 3400,
      "rown": 3401,
      "period": 3402,
      "If": 3403,
      "program": 3404,
      "fac": 3405,
      "Gree": 3406,
      "0s": 3407,
      "ibut": 3408,
      "ster": 3409,
      "ium": 3410,
      "mean": 3411,
      "ially": 3412,
      "president": 3413,
      "ried": 3414,
      "respon": 3415,
      "late": 3416,
      "13": 3417,
      "moder": 3418,
      "tele": 3419,
      "along": 3420,
      "sent": 3421,
      "establ": 3422,
      "side": 3423,
      "Wil": 3424,
      "ison": 3425,
      "Ac": 3426,
      "member": 3427,
      "always": 3428,
      "une": 3429,
      "Chinese": 3430,
      "according": 3431,
      "support": 3432,
      "omen": 3433,
      "ican": 3434,
      "President": 3435,
      "north": 3436,
      "atch": 3437,
      "publ": 3438,
      "Sun": 3439,
      "German": 3440,
      "story": 3441,
      "Sh": 3442,
      "England": 3443,
      "feel": 3444,
      "Pol": 3445,
      "history": 3446,
      "allow": 3447,
      "political": 3448,
      "May": 3449,
      "econom": 3450,
      "ai": 3451,
      "Republic": 3452,
      "ness": 3453,
      "Or": 3454,
      "11": 3455,
      "pain": 3456,
      "turned": 3457,
      "six": 3458,
      "Jan": 3459,
      "However": 3460,
      "aper": 3461,
      "include": 3462,
      "plac": 3463,
      "sen": 3464,
      "Jack": 3465,
      "Geor": 3466,
      "Ph": 3467,
      "omet": 3468,
      "prom": 3469,
      "chang": 3470,
      "ights": 3471,
      "Ste": 3472,
      "ides": 3473,
      "blo": 3474,
      "band": 3475,
      "Par": 3476,
      "ids": 3477,
      "boy": 3478,
      "parents": 3479,
      "Sc": 3480,
      "itary": 3481,
      "ute": 3482,
      "Bar": 3483,
      "kes": 3484,
      "report": 3485,
      "eas": 3486,
      "modern": 3487,
      "national": 3488,
      "bur": 3489,
      "European": 3490,
      "rece": 3491,
      "order": 3492,
      "To": 3493,
      "vol": 3494,
      "Mic": 3495,
      "incre": 3496,
      "things": 3497,
      "cas": 3498,
      "appro": 3499,
      "America": 3500,
      "gener": 3501,
      "stre": 3502,
      "sure": 3503,
      "mid": 3504,
      "ization": 3505,
      "control": 3506,
      "making": 3507,
      "tit": 3508,
      "south": 3509,
      "Ad": 3510,
      "held": 3511,
      "ord": 3512,
      "194": 3513,
      "season": 3514,
      "ones": 3515,
      "spo": 3516,
      "among": 3517,
      "Cent": 3518,
      "search": 3519,
      "police": 3520,
      "foot": 3521,
      "design": 3522,
      "bi": 3523,
      "within": 3524,
      "countries": 3525,
      "cu": 3526,
      "region": 3527,
      "Char": 3528,
      "cost": 3529,
      "vil": 3530,
      "pect": 3531,
      "iver": 3532,
      "dist": 3533,
      "face": 3534,
      "ize": 3535,
      "anim": 3536,
      "formation": 3537,
      "ges": 3538,
      "ator": 3539,
      "cit": 3540,
      "times": 3541,
      "bert": 3542,
      "sho": 3543,
      "outs": 3544,
      "hold": 3545,
      "iter": 3546,
      "hop": 3547,
      "sk": 3548,
      "That": 3549,
      "really": 3550,
      "mi": 3551,
      "!\"": 3552,
      "lex": 3553,
      "ined": 3554,
      "My": 3555,
      "Man": 3556,
      "sum": 3557,
      "list": 3558,
      "France": 3559,
      "West": 3560,
      "gether": 3561,
      "aut": 3562,
      "techn": 3563,
      "ague": 3564,
      "fed": 3565,
      "descri": 3566,
      "without": 3567,
      "rad": 3568,
      "ained": 3569,
      "tell": 3570,
      "issu": 3571,
      "sit": 3572,
      "istr": 3573,
      "Some": 3574,
      "ref": 3575,
      "third": 3576,
      "live": 3577,
      "played": 3578,
      "National": 3579,
      "bab": 3580,
      "ina": 3581,
      "mag": 3582,
      "With": 3583,
      "camp": 3584,
      "net": 3585,
      "Gu": 3586,
      "claim": 3587,
      "rote": 3588,
      "using": 3589,
      "wood": 3590,
      "Cl": 3591,
      "25": 3592,
      "states": 3593,
      "result": 3594,
      "half": 3595,
      "formed": 3596,
      "change": 3597,
      "gn": 3598,
      "something": 3599,
      "grow": 3600,
      "dle": 3601,
      "Roman": 3602,
      "ives": 3603,
      "located": 3604,
      "court": 3605,
      "By": 3606,
      "cies": 3607,
      "hig": 3608,
      "members": 3609,
      "wrote": 3610,
      "grad": 3611,
      "dri": 3612,
      "loy": 3613,
      "Then": 3614,
      "pen": 3615,
      "attack": 3616,
      "social": 3617,
      "def": 3618,
      "post": 3619,
      "business": 3620,
      "others": 3621,
      "aid": 3622,
      "sl": 3623,
      "game": 3624,
      "proble": 3625,
      "defin": 3626,
      "together": 3627,
      "ified": 3628,
      "Mc": 3629,
      "All": 3630,
      "ont": 3631,
      "ened": 3632,
      "ats": 3633,
      "round": 3634,
      "rul": 3635,
      "give": 3636,
      "dy": 3637,
      "Dav": 3638,
      "influ": 3639,
      "character": 3640,
      "educ": 3641,
      "Austral": 3642,
      "coming": 3643,
      "ham": 3644,
      "love": 3645,
      "ports": 3646,
      "posed": 3647,
      "non": 3648,
      "ru": 3649,
      "sal": 3650,
      "Canad": 3651,
      "wi": 3652,
      "job": 3653,
      "ches": 3654,
      "brother": 3655,
      "kind": 3656,
      "current": 3657,
      "process": 3658,
      "ometimes": 3659,
      "itions": 3660,
      "ences": 3661,
      "sible": 3662,
      "tradition": 3663,
      "Tom": 3664,
      "free": 3665,
      "que": 3666,
      "following": 3667,
      "ze": 3668,
      "pat": 3669,
      "star": 3670,
      "event": 3671,
      "ground": 3672,
      "tw": 3673,
      "Sy": 3674,
      "bal": 3675,
      "atic": 3676,
      "stop": 3677,
      "ured": 3678,
      "himself": 3679,
      "song": 3680,
      "Greek": 3681,
      "ather": 3682,
      "ban": 3683,
      "aver": 3684,
      "electr": 3685,
      "military": 3686,
      "Pl": 3687,
      "word": 3688,
      "Ital": 3689,
      "strong": 3690,
      "indust": 3691,
      "interest": 3692,
      "happy": 3693,
      "typ": 3694,
      "vict": 3695,
      "ched": 3696,
      "bit": 3697,
      "cell": 3698,
      "considered": 3699,
      "aul": 3700,
      "having": 3701,
      "famous": 3702,
      "study": 3703,
      "recent": 3704,
      "aged": 3705,
      "sw": 3706,
      "usually": 3707,
      "hes": 3708,
      "case": 3709,
      "quest": 3710,
      "series": 3711,
      "level": 3712,
      "pract": 3713,
      "party": 3714,
      "rock": 3715,
      "gave": 3716,
      "ample": 3717,
      "Ber": 3718,
      "Do": 3719,
      "keep": 3720,
      "mom": 3721,
      "key": 3722,
      "graph": 3723,
      "Go": 3724,
      "acc": 3725,
      "clear": 3726,
      "ctions": 3727,
      "grand": 3728,
      "Emp": 3729,
      "vo": 3730,
      "learn": 3731,
      "once": 3732,
      "looked": 3733,
      "special": 3734,
      "vir": 3735,
      "relig": 3736,
      "ards": 3737,
      "Ear": 3738,
      "Ju": 3739,
      "Bl": 3740,
      "road": 3741,
      "acher": 3742,
      "equ": 3743,
      "ret": 3744,
      "site": 3745,
      "Ne": 3746,
      "outside": 3747,
      "ik": 3748,
      "continu": 3749,
      "rop": 3750,
      "position": 3751,
      "sou": 3752,
      "months": 3753,
      "mot": 3754,
      "whe": 3755,
      "compet": 3756,
      "ston": 3757,
      "Mus": 3758,
      "Jap": 3759,
      "stu": 3760,
      "195": 3761,
      "histor": 3762,
      "sat": 3763,
      "oto": 3764,
      "developed": 3765,
      "India": 3766,
      "across": 3767,
      "Russ": 3768,
      "100": 3769,
      "ending": 3770,
      "fort": 3771,
      "Japan": 3772,
      "prim": 3773,
      "close": 3774,
      "ff": 3775,
      "TV": 3776,
      "adv": 3777,
      "Ed": 3778,
      "elt": 3779,
      "ready": 3780,
      "range": 3781,
      "international": 3782,
      "field": 3783,
      "feat": 3784,
      "short": 3785,
      "prote": 3786,
      "invest": 3787,
      "Ang": 3788,
      "moved": 3789,
      "cal": 3790,
      "ond": 3791,
      "pay": 3792,
      "independ": 3793,
      "works": 3794,
      "iday": 3795,
      "books": 3796,
      "bel": 3797,
      "Ob": 3798,
      "teen": 3799,
      "Empire": 3800,
      "example": 3801,
      "ington": 3802,
      "better": 3803,
      "woman": 3804,
      "pur": 3805,
      "women": 3806,
      "cast": 3807,
      "cop": 3808,
      "island": 3809,
      "Scot": 3810,
      "profess": 3811,
      "working": 3812,
      "reco": 3813,
      "East": 3814,
      "sty": 3815,
      "east": 3816,
      "Kingdom": 3817,
      "ric": 3818,
      "ener": 3819,
      "seven": 3820,
      "released": 3821,
      "James": 3822,
      "George": 3823,
      "mand": 3824,
      "birth": 3825,
      "mas": 3826,
      "ox": 3827,
      "ken": 3828,
      "hol": 3829,
      "Sw": 3830,
      "nes": 3831,
      "40": 3832,
      "heart": 3833,
      "ming": 3834,
      "experi": 3835,
      "cret": 3836,
      "wa": 3837,
      "must": 3838,
      "distr": 3839,
      "established": 3840,
      "compu": 3841,
      "conne": 3842,
      "Med": 3843,
      "wife": 3844,
      "daugh": 3845,
      "Min": 3846,
      "bas": 3847,
      "given": 3848,
      "fav": 3849,
      "territ": 3850,
      "invol": 3851,
      "dre": 3852,
      "particular": 3853,
      "ler": 3854,
      "Ser": 3855,
      "health": 3856,
      "news": 3857,
      "lam": 3858,
      "vide": 3859,
      "black": 3860,
      "local": 3861,
      "William": 3862,
      "Sep": 3863,
      "ering": 3864,
      "sell": 3865,
      "cul": 3866,
      "past": 3867,
      "Where": 3868,
      "living": 3869,
      "stitution": 3870,
      "wards": 3871,
      "teacher": 3872,
      "cause": 3873,
      "uses": 3874,
      "today": 3875,
      "plic": 3876,
      "utes": 3877,
      "break": 3878,
      "Britain": 3879,
      "university": 3880,
      "ush": 3881,
      "mb": 3882,
      "hip": 3883,
      "idence": 3884,
      "hours": 3885,
      "seem": 3886,
      "published": 3887,
      "fall": 3888,
      "cir": 3889,
      "ico": 3890,
      "ently": 3891,
      "atin": 3892,
      "information": 3893,
      "ency": 3894,
      "sof": 3895,
      "nia": 3896,
      "travel": 3897,
      "might": 3898,
      "gar": 3899,
      "ks": 3900,
      "role": 3901,
      "omin": 3902,
      "Sam": 3903,
      "acy": 3904,
      "least": 3905,
      "action": 3906,
      "almost": 3907,
      "Phil": 3908,
      "stead": 3909,
      "television": 3910,
      "lost": 3911,
      "xim": 3912,
      "arri": 3913,
      "ior": 3914,
      "Africa": 3915,
      "attle": 3916,
      "sett": 3917,
      "lor": 3918,
      "sometimes": 3919,
      "dol": 3920,
      "final": 3921,
      "Paul": 3922,
      "cially": 3923,
      "Mary": 3924,
      "nat": 3925,
      "visit": 3926,
      "crit": 3927,
      "Ex": 3928,
      "ana": 3929,
      "evol": 3930,
      "Oc": 3931,
      "average": 3932,
      "ains": 3933,
      "During": 3934,
      "lymp": 3935,
      "24": 3936,
      "separ": 3937,
      "seen": 3938,
      "research": 3939,
      "morning": 3940,
      "60": 3941,
      "Me": 3942,
      "type": 3943,
      "Ab": 3944,
      "Olymp": 3945,
      "wind": 3946,
      "begin": 3947,
      "har": 3948,
      "knew": 3949,
      "soon": 3950,
      "written": 3951,
      "ots": 3952,
      "ene": 3953,
      "tember": 3954,
      "nation": 3955,
      "phys": 3956,
      "These": 3957,
      "na": 3958,
      "Union": 3959,
      "ountain": 3960,
      "urs": 3961,
      "earli": 3962,
      "medi": 3963,
      "created": 3964,
      "fell": 3965,
      "represent": 3966,
      "lived": 3967,
      "According": 3968,
      "ality": 3969,
      "brought": 3970,
      "forms": 3971,
      "founded": 3972,
      "photo": 3973,
      "aken": 3974,
      "Which": 3975,
      "ither": 3976,
      "rain": 3977,
      "scient": 3978,
      "spital": 3979,
      "phone": 3980,
      "appear": 3981,
      "development": 3982,
      "Mid": 3983,
      "ilar": 3984,
      "meet": 3985,
      "Hol": 3986,
      "fur": 3987,
      "hor": 3988,
      "ability": 3989,
      "hab": 3990,
      "Span": 3991,
      "det": 3992,
      "white": 3993,
      "club": 3994,
      "needed": 3995,
      "ilt": 3996,
      "ief": 3997,
      "Aug": 3998,
      "areas": 3999,
      "decl": 4000,
      "House": 4001,
      "istan": 4002,
      "general": 4003,
      "mun": 4004,
      "fast": 4005,
      "host": 4006,
      "treat": 4007,
      "Cor": 4008,
      "playing": 4009,
      "Sat": 4010,
      "killed": 4011,
      "tre": 4012,
      "Fe": 4013,
      "Sunday": 4014,
      "announ": 4015,
      "iled": 4016,
      "office": 4017,
      "single": 4018,
      "mocr": 4019,
      "September": 4020,
      "total": 4021,
      "21": 4022,
      "ampion": 4023,
      "Arab": 4024,
      "cil": 4025,
      "June": 4026,
      "hind": 4027,
      "vot": 4028,
      "activ": 4029,
      "Obama": 4030,
      "vious": 4031,
      "roy": 4032,
      "Germany": 4033,
      "words": 4034,
      "ible": 4035,
      "alifor": 4036,
      "Tues": 4037,
      "percent": 4038,
      "Wash": 4039,
      "dies": 4040,
      "ny": 4041,
      "full": 4042,
      "front": 4043,
      "January": 4044,
      "daughter": 4045,
      "covered": 4046,
      "rol": 4047,
      "August": 4048,
      "cup": 4049,
      "NA": 4050,
      "partment": 4051,
      "ached": 4052,
      "Lo": 4053,
      "Califor": 4054,
      "lies": 4055,
      "Wal": 4056,
      "parts": 4057,
      "various": 4058,
      "bum": 4059,
      "Washington": 4060,
      "Ma": 4061,
      "2010": 4062,
      "School": 4063,
      "Tuesday": 4064,
      "California": 4065,
      "reed": 4066,
      "March": 4067,
      "July": 4068,
      "comes": 4069,
      "liter": 4070,
      "exist": 4071,
      "addition": 4072,
      "species": 4073,
      "languages": 4074,
      "lin": 4075,
      "ris": 4076,
      "ford": 4077,
      "Gen": 4078,
      "enough": 4079,
      "2008": 4080,
      "behind": 4081,
      "cture": 4082,
      "western": 4083,
      "groups": 4084,
      "neigh": 4085,
      "priv": 4086,
      "due": 4087,
      "sour": 4088,
      "building": 4089,
      "bar": 4090,
      "sle": 4091,
      "ij": 4092,
      "board": 4093,
      "inc": 4094,
      "Christian": 4095,
      "certain": 4096,
      "iet": 4097,
      "recogn": 4098,
      "stay": 4099,
      "tober": 4100,
      "employ": 4101,
      "vember": 4102,
      "admin": 4103,
      "hot": 4104,
      "eved": 4105,
      "November": 4106,
      "associ": 4107,
      "Great": 4108,
      "Mex": 4109,
      "culture": 4110,
      "direct": 4111,
      "State": 4112,
      "meaning": 4113,
      "door": 4114,
      "idea": 4115,
      "eth": 4116,
      "eve": 4117,
      "October": 4118,
      "ned": 4119,
      "mal": 4120,
      "title": 4121,
      "successful": 4122,
      "Gre": 4123,
      "newsp": 4124,
      "nic": 4125,
      "lete": 4126,
      "ata": 4127,
      "David": 4128,
      "expl": 4129,
      "vic": 4130,
      "Apr": 4131,
      "spir": 4132,
      "Tr": 4133,
      "speak": 4134,
      "space": 4135,
      "Now": 4136,
      "April": 4137,
      "sequ": 4138,
      "prin": 4139,
      "ances": 4140,
      "Per": 4141,
      "ient": 4142,
      "ply": 4143,
      "cient": 4144,
      "Latin": 4145,
      "count": 4146,
      "23": 4147,
      "lives": 4148,
      "ping": 4149,
      "hear": 4150,
      "leader": 4151,
      "Lu": 4152,
      "included": 4153,
      "Many": 4154,
      "means": 4155,
      "Spanish": 4156,
      "ention": 4157,
      "education": 4158,
      "Don": 4159,
      "quar": 4160,
      "193": 4161,
      "reason": 4162,
      "manag": 4163,
      "...": 4164,
      "federal": 4165,
      "hit": 4166,
      "eat": 4167,
      "worked": 4168,
      "market": 4169,
      "thod": 4170,
      "While": 4171,
      "similar": 4172,
      "lied": 4173,
      "comb": 4174,
      "era": 4175,
      "African": 4176,
      "web": 4177,
      "enced": 4178,
      "received": 4179,
      "taken": 4180,
      "novel": 4181,
      "2011": 4182,
      "felt": 4183,
      "civil": 4184,
      "course": 4185,
      "22": 4186,
      "River": 4187,
      "ense": 4188,
      "els": 4189,
      "hest": 4190,
      "prison": 4191,
      "ternet": 4192,
      "although": 4193,
      "cing": 4194,
      "decided": 4195,
      "watch": 4196,
      "service": 4197,
      "pick": 4198,
      "espe": 4199,
      "cean": 4200,
      "looking": 4201,
      "exe": 4202,
      "El": 4203,
      "diffic": 4204,
      "ung": 4205,
      "whose": 4206,
      "built": 4207,
      "icy": 4208,
      "concer": 4209,
      "especially": 4210,
      "tar": 4211,
      "mission": 4212,
      "squ": 4213,
      "Lou": 4214,
      "appeared": 4215,
      "ively": 4216,
      "football": 4217,
      "favor": 4218,
      "Mad": 4219,
      "fish": 4220,
      "why": 4221,
      "hood": 4222,
      "media": 4223,
      "Monday": 4224,
      "heard": 4225,
      "hon": 4226,
      "possible": 4227,
      "mit": 4228,
      "however": 4229,
      "reported": 4230,
      "kids": 4231,
      "rodu": 4232,
      "ror": 4233,
      "train": 4234,
      "idge": 4235,
      "ological": 4236,
      "unch": 4237,
      "mult": 4238,
      "buy": 4239,
      "joy": 4240,
      "mater": 4241,
      "ull": 4242,
      "pected": 4243,
      "Pal": 4244,
      "Friday": 4245,
      "Canada": 4246,
      "eight": 4247,
      "phil": 4248,
      "Did": 4249,
      "Em": 4250,
      "ament": 4251,
      "Thom": 4252,
      "Bob": 4253,
      "za": 4254,
      "arrest": 4255,
      "sound": 4256,
      "quick": 4257,
      "signific": 4258,
      "occur": 4259,
      "Ap": 4260,
      "fair": 4261,
      "done": 4262,
      "draw": 4263,
      "Que": 4264,
      "minutes": 4265,
      "Its": 4266,
      "box": 4267,
      "border": 4268,
      "fire": 4269,
      "jud": 4270,
      "cember": 4271,
      "God": 4272,
      "broad": 4273,
      "December": 4274,
      "compan": 4275,
      "produced": 4276,
      "understand": 4277,
      "ential": 4278,
      "League": 4279,
      "dig": 4280,
      "ring": 4281,
      "San": 4282,
      "sex": 4283,
      "energy": 4284,
      "video": 4285,
      "Australia": 4286,
      "Te": 4287,
      "Satur": 4288,
      "writing": 4289,
      "album": 4290,
      "Alex": 4291,
      "26": 4292,
      "effect": 4293,
      "suf": 4294,
      "2013": 4295,
      "van": 4296,
      "force": 4297,
      "bad": 4298,
      "doing": 4299,
      "Western": 4300,
      "ination": 4301,
      "2012": 4302,
      "Asia": 4303,
      "rac": 4304,
      "computer": 4305,
      "believe": 4306,
      "bes": 4307,
      "La": 4308,
      "glo": 4309,
      "natural": 4310,
      "divid": 4311,
      "career": 4312,
      "ded": 4313,
      "Port": 4314,
      "introdu": 4315,
      "tens": 4316,
      "rid": 4317,
      "speci": 4318,
      "helped": 4319,
      "loved": 4320,
      "lat": 4321,
      "weeks": 4322,
      "Micha": 4323,
      "material": 4324,
      "cities": 4325,
      "osop": 4326,
      "tried": 4327,
      "continued": 4328,
      "ends": 4329,
      "proper": 4330,
      "pan": 4331,
      "flow": 4332,
      "Febr": 4333,
      "ising": 4334,
      "served": 4335,
      "February": 4336,
      "deal": 4337,
      "hospital": 4338,
      "blood": 4339,
      "County": 4340,
      "sus": 4341,
      "init": 4342,
      "spent": 4343,
      "clim": 4344,
      "antic": 4345,
      "Saturday": 4346,
      "International": 4347,
      "Islam": 4348,
      "complete": 4349,
      "vice": 4350,
      "student": 4351,
      "officially": 4352,
      "Fed": 4353,
      "Part": 4354,
      "Although": 4355,
      "race": 4356,
      "added": 4357,
      "ision": 4358,
      "jour": 4359,
      "empt": 4360,
      "28": 4361,
      "2009": 4362,
      "share": 4363,
      "aps": 4364,
      "Kore": 4365,
      "termin": 4366,
      "couldn": 4367,
      "ino": 4368,
      "IS": 4369,
      "cook": 4370,
      "aries": 4371,
      "rich": 4372,
      "Wed": 4373,
      "ps": 4374,
      "communic": 4375,
      "secut": 4376,
      "From": 4377,
      "itted": 4378,
      "investig": 4379,
      "central": 4380,
      "super": 4381,
      "economic": 4382,
      "Po": 4383,
      "getting": 4384,
      "estim": 4385,
      "hom": 4386,
      "player": 4387,
      "chol": 4388,
      "Most": 4389,
      "iction": 4390,
      "includes": 4391,
      "store": 4392,
      "gun": 4393,
      "step": 4394,
      "Jer": 4395,
      "2014": 4396,
      "White": 4397,
      "ival": 4398,
      "pie": 4399,
      "ging": 4400,
      "uel": 4401,
      "individ": 4402,
      "makes": 4403,
      "adem": 4404,
      "Since": 4405,
      "Church": 4406,
      "fight": 4407,
      "inal": 4408,
      "sug": 4409,
      "temper": 4410,
      "plant": 4411,
      "followed": 4412,
      "vari": 4413,
      "accept": 4414,
      "stant": 4415,
      "original": 4416,
      "itive": 4417,
      "taking": 4418,
      "constru": 4419,
      "viol": 4420,
      "style": 4421,
      "lect": 4422,
      "anything": 4423,
      "placed": 4424,
      "science": 4425,
      "Frank": 4426,
      "coast": 4427,
      "istic": 4428,
      "ades": 4429,
      "whether": 4430,
      "significant": 4431,
      "Michael": 4432,
      "previous": 4433,
      "gradu": 4434,
      "Internet": 4435,
      "schools": 4436,
      "sister": 4437,
      "sea": 4438,
      "cele": 4439,
      "park": 4440,
      "conf": 4441,
      "drug": 4442,
      "Other": 4443,
      "reme": 4444,
      "29": 4445,
      "Rich": 4446,
      "Just": 4447,
      "Wednes": 4448,
      "da": 4449,
      "philosop": 4450,
      "aves": 4451,
      "Am": 4452,
      "ria": 4453,
      "rap": 4454,
      "talk": 4455,
      "flo": 4456,
      "abor": 4457,
      "Angel": 4458,
      "center": 4459,
      "upon": 4460,
      "Su": 4461,
      "changed": 4462,
      "opened": 4463,
      "Hen": 4464,
      "legal": 4465,
      "inj": 4466,
      "eg": 4467,
      "already": 4468,
      "impro": 4469,
      "ount": 4470,
      "hero": 4471,
      "27": 4472,
      "cat": 4473,
      "enter": 4474,
      "audi": 4475,
      "avail": 4476,
      "exper": 4477,
      "Sou": 4478,
      "announced": 4479,
      "erous": 4480,
      "Jew": 4481,
      "Mi": 4482,
      "Wednesday": 4483,
      "mass": 4484,
      "Paris": 4485,
      "administr": 4486,
      "ood": 4487,
      "suggest": 4488,
      "Bill": 4489,
      "Every": 4490,
      "Charles": 4491,
      "Thurs": 4492,
      "mig": 4493,
      "heav": 4494,
      "systems": 4495,
      "mur": 4496,
      "aint": 4497,
      "Tur": 4498,
      "animals": 4499,
      "difficult": 4500,
      "industry": 4501,
      "paper": 4502,
      "ropolit": 4503,
      "sleep": 4504,
      "selves": 4505,
      "color": 4506,
      "mind": 4507,
      "either": 4508,
      "mess": 4509,
      "attr": 4510,
      "wasn": 4511,
      "itz": 4512,
      "related": 4513,
      "Cup": 4514,
      "meas": 4515,
      "sun": 4516,
      "ropolitan": 4517,
      "statement": 4518,
      "Bro": 4519,
      "2007": 4520,
      "dou": 4521,
      "games": 4522,
      "\")": 4523,
      "thes": 4524,
      "aign": 4525,
      "ify": 4526,
      "base": 4527,
      "Indian": 4528,
      "onic": 4529,
      "ara": 4530,
      "college": 4531,
      "trip": 4532,
      "highest": 4533,
      ".,": 4534,
      "ators": 4535,
      "return": 4536,
      "execut": 4537,
      "tru": 4538,
      "exam": 4539,
      "Thursday": 4540,
      "cript": 4541,
      "community": 4542,
      "omb": 4543,
      "pal": 4544,
      "viron": 4545,
      "commonly": 4546,
      "whole": 4547,
      "forman": 4548,
      "orney": 4549,
      "oud": 4550,
      "Hu": 4551,
      "billion": 4552,
      "People": 4553,
      "running": 4554,
      "bour": 4555,
      "aster": 4556,
      "ships": 4557,
      "Dr": 4558,
      "asing": 4559,
      "ius": 4560,
      "500": 4561,
      "religious": 4562,
      "fif": 4563,
      "Dan": 4564,
      "Res": 4565,
      "Miss": 4566,
      "19th": 4567,
      "cand": 4568,
      "aft": 4569,
      "Fin": 4570,
      "Comp": 4571,
      "Ben": 4572,
      "km": 4573,
      "bank": 4574,
      "rule": 4575,
      "astern": 4576,
      "referred": 4577,
      "rather": 4578,
      "traditional": 4579,
      "ula": 4580,
      "leaders": 4581,
      "Jim": 4582,
      "adop": 4583,
      "walked": 4584,
      "Thomas": 4585,
      "shot": 4586,
      "dream": 4587,
      "80": 4588,
      "authorities": 4589,
      "emer": 4590,
      "ults": 4591,
      "theast": 4592,
      "relation": 4593,
      "mic": 4594,
      "nearly": 4595,
      "uries": 4596,
      "pict": 4597,
      "further": 4598,
      "bot": 4599,
      "aught": 4600,
      "ding": 4601,
      "curity": 4602,
      "earlier": 4603,
      "surpr": 4604,
      "fully": 4605,
      "match": 4606,
      "miles": 4607,
      "Earth": 4608,
      "stri": 4609,
      "rael": 4610,
      "onom": 4611,
      "ida": 4612,
      "iger": 4613,
      "Act": 4614,
      "cultural": 4615,
      "70": 4616,
      "wait": 4617,
      "chief": 4618,
      "dead": 4619,
      "leading": 4620,
      "Cap": 4621,
      "colon": 4622,
      "abo": 4623,
      "Atl": 4624,
      "rights": 4625,
      "chem": 4626,
      "Grand": 4627,
      "standard": 4628,
      "lie": 4629,
      "returned": 4630,
      "inside": 4631,
      "forces": 4632,
      "ousand": 4633,
      "names": 4634,
      "ximately": 4635,
      "kept": 4636,
      "Mrs": 4637,
      "else": 4638,
      "problems": 4639,
      "Park": 4640,
      "evolution": 4641,
      "ples": 4642,
      "reach": 4643,
      "doctor": 4644,
      "answer": 4645,
      "Italian": 4646,
      "Sm": 4647,
      "undred": 4648,
      "pot": 4649,
      "eyes": 4650,
      "someone": 4651,
      "shop": 4652,
      "syn": 4653,
      "dollar": 4654,
      "throughout": 4655,
      "din": 4656,
      "fut": 4657,
      "tax": 4658,
      "trying": 4659,
      "Mal": 4660,
      "performan": 4661,
      "beginning": 4662,
      "famil": 4663,
      "aving": 4664,
      "hus": 4665,
      "passed": 4666,
      "tom": 4667,
      "instru": 4668,
      "contribut": 4669,
      "bring": 4670,
      "jects": 4671,
      "finan": 4672,
      "Of": 4673,
      "available": 4674,
      "summer": 4675,
      "engine": 4676,
      "Mer": 4677,
      "Des": 4678,
      "fig": 4679,
      "Israel": 4680,
      "Cour": 4681,
      "ix": 4682,
      "celebr": 4683,
      "mountain": 4684,
      "rate": 4685,
      "arm": 4686,
      "surv": 4687,
      "Sea": 4688,
      "berg": 4689,
      "enjoy": 4690,
      "anal": 4691,
      "Egy": 4692,
      "mach": 4693,
      "itor": 4694,
      "saying": 4695,
      "ease": 4696,
      "scre": 4697,
      "quickly": 4698,
      "model": 4699,
      "ows": 4700,
      "arily": 4701,
      "vironment": 4702,
      "everyone": 4703,
      "rew": 4704,
      "table": 4705,
      "\"\"": 4706,
      "tic": 4707,
      "lay": 4708,
      "happened": 4709,
      "lying": 4710,
      "Egypt": 4711,
      "green": 4712,
      "Sen": 4713,
      "movie": 4714,
      "Robert": 4715,
      "doesn": 4716,
      "2015": 4717,
      "alleg": 4718,
      "director": 4719,
      "reached": 4720,
      "imp": 4721,
      "territory": 4722,
      "campaign": 4723,
      "oldest": 4724,
      "appoint": 4725,
      "southern": 4726,
      "bac": 4727,
      "bul": 4728,
      "sib": 4729,
      "terms": 4730,
      "ishing": 4731,
      "itting": 4732,
      "shows": 4733,
      "princi": 4734,
      "specific": 4735,
      "champion": 4736,
      "Sovi": 4737,
      "arded": 4738,
      "finally": 4739,
      "Democr": 4740,
      "generally": 4741,
      "nal": 4742,
      "attempt": 4743,
      "Middle": 4744,
      "dad": 4745,
      "cross": 4746,
      "Val": 4747,
      "Central": 4748,
      "problem": 4749,
      "wear": 4750,
      "Pat": 4751,
      "described": 4752,
      "archite": 4753,
      "docu": 4754,
      "ensus": 4755,
      "newspaper": 4756,
      "experience": 4757,
      "officials": 4758,
      "production": 4759,
      "sil": 4760,
      "gold": 4761,
      "Cong": 4762,
      "date": 4763,
      "hair": 4764,
      "middle": 4765,
      "Bel": 4766,
      "rian": 4767,
      "fourth": 4768,
      "argu": 4769,
      "corpor": 4770,
      "dam": 4771,
      "jum": 4772,
      "themselves": 4773,
      "situ": 4774,
      "disc": 4775,
      "lif": 4776,
      "cher": 4777,
      "20th": 4778,
      "online": 4779,
      "raz": 4780,
      "characters": 4781,
      "sor": 4782,
      "husband": 4783,
      "burg": 4784,
      "immedi": 4785,
      "Bu": 4786,
      "pite": 4787,
      "Mart": 4788,
      "radio": 4789,
      "pet": 4790,
      "favorite": 4791,
      "ints": 4792,
      "Mor": 4793,
      "foreign": 4794,
      "movement": 4795,
      "Louis": 4796,
      "olic": 4797,
      "bran": 4798,
      "county": 4799,
      "ises": 4800,
      "Colle": 4801,
      "ben": 4802,
      "Americans": 4803,
      "provide": 4804,
      "ctive": 4805,
      "dest": 4806,
      "beaut": 4807,
      "190": 4808,
      "leave": 4809,
      "Department": 4810,
      "Island": 4811,
      "expected": 4812,
      "private": 4813,
      "Vict": 4814,
      "yet": 4815,
      "poor": 4816,
      "Mexico": 4817,
      "gress": 4818,
      "instead": 4819,
      "sed": 4820,
      "true": 4821,
      "Cath": 4822,
      "magaz": 4823,
      "Fir": 4824,
      "text": 4825,
      "mill": 4826,
      "coup": 4827,
      "teach": 4828,
      "future": 4829,
      "90": 4830,
      "higher": 4831,
      "thousand": 4832,
      "Cr": 4833,
      "islands": 4834,
      "Roy": 4835,
      "Mac": 4836,
      "itself": 4837,
      "urt": 4838,
      "pred": 4839,
      "blue": 4840,
      "plants": 4841,
      "Pak": 4842,
      "ners": 4843,
      "ov": 4844,
      "remember": 4845,
      "victory": 4846,
      "Rom": 4847,
      "Mark": 4848,
      "2006": 4849,
      "cked": 4850,
      "events": 4851,
      "active": 4852,
      "Tim": 4853,
      "drop": 4854,
      "approximately": 4855,
      "letter": 4856,
      "populous": 4857,
      "services": 4858,
      "Soviet": 4859,
      "UK": 4860,
      "sold": 4861,
      "ope": 4862,
      "ae": 4863,
      "invent": 4864,
      "useum": 4865,
      "frequ": 4866,
      "hundred": 4867,
      "access": 4868,
      "wat": 4869,
      "everything": 4870,
      "track": 4871,
      "beat": 4872,
      "vill": 4873,
      "express": 4874,
      "wr": 4875,
      "porters": 4876,
      "sport": 4877,
      "secret": 4878,
      "write": 4879,
      "professional": 4880,
      "Vir": 4881,
      "Not": 4882,
      "entire": 4883,
      "ancient": 4884,
      "ification": 4885,
      "Victor": 4886,
      "commer": 4887,
      "evidence": 4888,
      "inst": 4889,
      "consist": 4890,
      "companies": 4891,
      "ander": 4892,
      "personal": 4893,
      "iel": 4894,
      "players": 4895,
      "mouth": 4896,
      "ries": 4897,
      "allowed": 4898,
      "widely": 4899,
      "ires": 4900,
      "Joe": 4901,
      "uan": 4902,
      "organization": 4903,
      "Party": 4904,
      "goal": 4905,
      "involved": 4906,
      "Ocean": 4907,
      "Spain": 4908,
      "sad": 4909,
      "Why": 4910,
      "rup": 4911,
      "trial": 4912,
      "issue": 4913,
      "disease": 4914,
      "ctors": 4915,
      "Bur": 4916,
      "Henry": 4917,
      "river": 4918,
      "serious": 4919,
      "yl": 4920,
      "actor": 4921,
      "caused": 4922,
      "Brown": 4923,
      "Ire": 4924,
      "sco": 4925,
      "majority": 4926,
      "Sch": 4927,
      "neighbor": 4928,
      "longer": 4929,
      "Pakistan": 4930,
      "baby": 4931,
      "murder": 4932,
      "umb": 4933,
      "univers": 4934,
      "35": 4935,
      "iful": 4936,
      "technology": 4937,
      "independent": 4938,
      "acqu": 4939,
      "han": 4940,
      "writer": 4941,
      "Os": 4942,
      "walk": 4943,
      "wealth": 4944,
      "suffer": 4945,
      "College": 4946,
      "chair": 4947,
      "Steve": 4948,
      "Russian": 4949,
      "Mil": 4950,
      "sess": 4951,
      "respect": 4952,
      "Ir": 4953,
      "atory": 4954,
      "anti": 4955,
      "(\"": 4956,
      "ena": 4957,
      "girls": 4958,
      "capt": 4959,
      "ona": 4960,
      "wit": 4961,
      "Pri": 4962,
      "domin": 4963,
      "General": 4964,
      "tree": 4965,
      "claimed": 4966,
      "influence": 4967,
      "ceed": 4968,
      "Carol": 4969,
      "ane": 4970,
      "olf": 4971,
      "pose": 4972,
      "First": 4973,
      "Muslim": 4974,
      "inary": 4975,
      "nine": 4976,
      "farm": 4977,
      "boys": 4978,
      "liament": 4979,
      "citiz": 4980,
      "Sal": 4981,
      "Cam": 4982,
      "ateg": 4983,
      "hope": 4984,
      "size": 4985,
      "mad": 4986,
      "reading": 4987,
      "iding": 4988,
      "except": 4989,
      "Council": 4990,
      "grew": 4991,
      "network": 4992,
      "tro": 4993,
      "occup": 4994,
      "schol": 4995,
      "Bal": 4996,
      "lad": 4997,
      "Center": 4998,
      "tour": 4999,
      "inhab": 5000,
      "print": 5001,
      "fill": 5002,
      "spokes": 5003,
      "particularly": 5004,
      "wall": 5005,
      "distribut": 5006,
      "Portug": 5007,
      "metropolitan": 5008,
      "Congress": 5009,
      "ably": 5010,
      "ole": 5011,
      "Court": 5012,
      "financial": 5013,
      "Tod": 5014,
      "threat": 5015,
      "married": 5016,
      "data": 5017,
      "primary": 5018,
      "version": 5019,
      "nast": 5020,
      "question": 5021,
      "deb": 5022,
      "birthday": 5023,
      "ental": 5024,
      "northern": 5025,
      "Air": 5026,
      "die": 5027,
      "AD": 5028,
      "owned": 5029,
      "medical": 5030,
      "trade": 5031,
      "aff": 5032,
      "arrived": 5033,
      "environment": 5034,
      "deg": 5035,
      "ean": 5036,
      "Stre": 5037,
      "bon": 5038,
      "interview": 5039,
      "Japanese": 5040,
      "believed": 5041,
      "chall": 5042,
      "above": 5043,
      "gent": 5044,
      "Eli": 5045,
      "method": 5046,
      "becoming": 5047,
      "pret": 5048,
      "applic": 5049,
      "ledge": 5050,
      "Du": 5051,
      "redu": 5052,
      "acts": 5053,
      "Two": 5054,
      "Flor": 5055,
      "lement": 5056,
      "aur": 5057,
      "nam": 5058,
      "Queen": 5059,
      "186": 5060,
      "Prince": 5061,
      "recently": 5062,
      "ration": 5063,
      "Jackson": 5064,
      "winning": 5065,
      "Ireland": 5066,
      "giving": 5067,
      "rying": 5068,
      "gas": 5069,
      "ijing": 5070,
      "points": 5071,
      "worth": 5072,
      "likely": 5073,
      "maintain": 5074,
      "stage": 5075,
      "Green": 5076,
      "acted": 5077,
      "FA": 5078,
      "ky": 5079,
      "stitute": 5080,
      "189": 5081,
      "hi": 5082,
      "Beijing": 5083,
      "Mel": 5084,
      "charged": 5085,
      "decision": 5086,
      "bow": 5087,
      "utch": 5088,
      "cks": 5089,
      "tware": 5090,
      "ears": 5091,
      "lower": 5092,
      "xed": 5093,
      "Hist": 5094,
      "craft": 5095,
      "lear": 5096,
      "Los": 5097,
      "Ter": 5098,
      "Im": 5099,
      "alone": 5100,
      "ograph": 5101,
      "clean": 5102,
      "Sha": 5103,
      "nothing": 5104,
      "tered": 5105,
      "Olympic": 5106,
      "edy": 5107,
      "distin": 5108,
      "spr": 5109,
      "ta": 5110,
      "Oh": 5111,
      "ern": 5112,
      "gs": 5113,
      "Peter": 5114,
      "economy": 5115,
      "estic": 5116,
      "kit": 5117,
      "Pre": 5118,
      "drink": 5119,
      "plays": 5120,
      "release": 5121,
      "originally": 5122,
      "station": 5123,
      "deep": 5124,
      "election": 5125,
      "charges": 5126,
      "ensive": 5127,
      "Italy": 5128,
      "sey": 5129,
      "mob": 5130,
      "theory": 5131,
      "street": 5132,
      "compl": 5133,
      "simply": 5134,
      "45": 5135,
      "lawy": 5136,
      "join": 5137,
      "website": 5138,
      "degree": 5139,
      "Pac": 5140,
      "anta": 5141,
      "brain": 5142,
      "seat": 5143,
      "verse": 5144,
      "attorney": 5145,
      "centuries": 5146,
      "animal": 5147,
      "ech": 5148,
      "apt": 5149,
      "rial": 5150,
      "pair": 5151,
      "glass": 5152,
      "fem": 5153,
      "loss": 5154,
      "brary": 5155,
      "Lin": 5156,
      "High": 5157,
      "focus": 5158,
      "remains": 5159,
      "source": 5160,
      "cis": 5161,
      "church": 5162,
      "lic": 5163,
      "performance": 5164,
      "Florida": 5165,
      "liked": 5166,
      "musical": 5167,
      "187": 5168,
      "practice": 5169,
      "introduced": 5170,
      "uni": 5171,
      "Christmas": 5172,
      "Black": 5173,
      "surround": 5174,
      "changes": 5175,
      "eventually": 5176,
      "Atlantic": 5177,
      "sports": 5178,
      "urban": 5179,
      "cases": 5180,
      "remained": 5181,
      "Mag": 5182,
      "adm": 5183,
      "ilities": 5184,
      "charge": 5185,
      "icle": 5186,
      "types": 5187,
      "Are": 5188,
      "ery": 5189,
      "symb": 5190,
      "enny": 5191,
      "Spe": 5192,
      "assist": 5193,
      "designed": 5194,
      "2005": 5195,
      "ops": 5196,
      "stitut": 5197,
      "takes": 5198,
      "prevent": 5199,
      "itar": 5200,
      "avo": 5201,
      "minor": 5202,
      "ills": 5203,
      "probab": 5204,
      "matter": 5205,
      "attention": 5206,
      "divided": 5207,
      "Dis": 5208,
      "estimated": 5209,
      "associated": 5210,
      "ert": 5211,
      "Open": 5212,
      "pul": 5213,
      "apart": 5214,
      "global": 5215,
      "Scott": 5216,
      "ening": 5217,
      "status": 5218,
      "2004": 5219,
      "pack": 5220,
      "Russia": 5221,
      "onto": 5222,
      "Games": 5223,
      "gry": 5224,
      "square": 5225,
      "subject": 5226,
      "Ham": 5227,
      "tor": 5228,
      "consider": 5229,
      "whom": 5230,
      "Nations": 5231,
      "soft": 5232,
      "thus": 5233,
      "older": 5234,
      "Iran": 5235,
      "Martin": 5236,
      "atives": 5237,
      "dro": 5238,
      "Day": 5239,
      "amount": 5240,
      "magazine": 5241,
      "candid": 5242,
      "films": 5243,
      "ufact": 5244,
      "Old": 5245,
      "convict": 5246,
      "showed": 5247,
      "teams": 5248,
      "contain": 5249,
      "Virgin": 5250,
      "iny": 5251,
      "army": 5252,
      "itch": 5253,
      "feet": 5254,
      "Francis": 5255,
      "Street": 5256,
      "cited": 5257,
      "towards": 5258,
      "mis": 5259,
      "Angeles": 5260,
      "paid": 5261,
      "wonder": 5262,
      "31": 5263,
      "confl": 5264,
      "project": 5265,
      "Hel": 5266,
      "Was": 5267,
      "software": 5268,
      "Del": 5269,
      "Associ": 5270,
      "quite": 5271,
      "strug": 5272,
      "Bud": 5273,
      "beautiful": 5274,
      "Red": 5275,
      "Au": 5276,
      "stopped": 5277,
      "Jud": 5278,
      "link": 5279,
      "Catholic": 5280,
      "gets": 5281,
      "determin": 5282,
      "Ho": 5283,
      "sec": 5284,
      "bled": 5285,
      "indic": 5286,
      "electric": 5287,
      "spread": 5288,
      ".[": 5289,
      "tto": 5290,
      "asket": 5291,
      "province": 5292,
      "condu": 5293,
      "bound": 5294,
      "Fo": 5295,
      "gone": 5296,
      "shap": 5297,
      "arrested": 5298,
      "ift": 5299,
      "sense": 5300,
      "Times": 5301,
      "stor": 5302,
      "ength": 5303,
      "Army": 5304,
      "probably": 5305,
      "aker": 5306,
      "dang": 5307,
      "learning": 5308,
      "Tex": 5309,
      "provided": 5310,
      "kingdom": 5311,
      "terror": 5312,
      "minute": 5313,
      "agre": 5314,
      "accident": 5315,
      "trou": 5316,
      "ties": 5317,
      "kid": 5318,
      "2000": 5319,
      "Dutch": 5320,
      "constitution": 5321,
      "bridge": 5322,
      "Harry": 5323,
      "voice": 5324,
      "apers": 5325,
      "Police": 5326,
      "anyone": 5327,
      "tee": 5328,
      "earth": 5329,
      "critic": 5330,
      "fail": 5331,
      "immediately": 5332,
      "centre": 5333,
      "particip": 5334,
      "Their": 5335,
      "shire": 5336,
      "ails": 5337,
      "issues": 5338,
      "typically": 5339,
      "medic": 5340,
      "growing": 5341,
      "bey": 5342,
      "places": 5343,
      "chance": 5344,
      "actions": 5345,
      "relative": 5346,
      "phen": 5347,
      "physical": 5348,
      "expand": 5349,
      "188": 5350,
      "ald": 5351,
      "manufact": 5352,
      "Smith": 5353,
      "Today": 5354,
      "fle": 5355,
      "society": 5356,
      "explo": 5357,
      "hous": 5358,
      "Ann": 5359,
      "scientific": 5360,
      "ville": 5361,
      "Str": 5362,
      "chemical": 5363,
      "Gold": 5364,
      "grant": 5365,
      "Boston": 5366,
      "Pacific": 5367,
      "annual": 5368,
      "zo": 5369,
      "illy": 5370,
      "vin": 5371,
      "finished": 5372,
      "ference": 5373,
      "goes": 5374,
      "counts": 5375,
      "yn": 5376,
      "currently": 5377,
      "auto": 5378,
      "Richard": 5379,
      "worldwide": 5380,
      "hands": 5381,
      "bought": 5382,
      "Chap": 5383,
      "shoot": 5384,
      "promot": 5385,
      "stories": 5386,
      "victim": 5387,
      "crim": 5388,
      "athe": 5389,
      "singer": 5390,
      "News": 5391,
      "Han": 5392,
      "bomb": 5393,
      "elected": 5394,
      "spot": 5395,
      "independence": 5396,
      "accused": 5397,
      "forced": 5398,
      "encour": 5399,
      "officer": 5400,
      "couple": 5401,
      "Jes": 5402,
      "ls": 5403,
      "rail": 5404,
      "policy": 5405,
      "Qu": 5406,
      "kil": 5407,
      "complet": 5408,
      "graphy": 5409,
      "Sum": 5410,
      "security": 5411,
      "ables": 5412,
      "growth": 5413,
      "slow": 5414,
      "tion": 5415,
      "aug": 5416,
      "ieve": 5417,
      "adopted": 5418,
      "75": 5419,
      "knowledge": 5420,
      "moment": 5421,
      "monarch": 5422,
      "mostly": 5423,
      "pun": 5424,
      "ushed": 5425,
      "defined": 5426,
      "Royal": 5427,
      "joined": 5428,
      "suit": 5429,
      "Philip": 5430,
      "moving": 5431,
      "Sol": 5432,
      "ctic": 5433,
      "function": 5434,
      "ider": 5435,
      "bell": 5436,
      "anned": 5437,
      "standing": 5438,
      "dress": 5439,
      "Sup": 5440,
      "Saint": 5441,
      "wants": 5442,
      "soldi": 5443,
      "ites": 5444,
      "yell": 5445,
      "organism": 5446,
      "products": 5447,
      "ruled": 5448,
      "Secret": 5449,
      "riage": 5450,
      "perform": 5451,
      "object": 5452,
      "ns": 5453,
      "sover": 5454,
      "Eastern": 5455,
      "Chris": 5456,
      "comment": 5457,
      "peace": 5458,
      "Wood": 5459,
      "cred": 5460,
      "eastern": 5461,
      "create": 5462,
      "individual": 5463,
      "istics": 5464,
      "directly": 5465,
      "cold": 5466,
      "affe": 5467,
      "families": 5468,
      "eign": 5469,
      "nature": 5470,
      "Ke": 5471,
      "larger": 5472,
      "lines": 5473,
      "ders": 5474,
      "SA": 5475,
      "Commun": 5476,
      "increasing": 5477,
      "discovered": 5478,
      "oil": 5479,
      "card": 5480,
      "cannot": 5481,
      "Web": 5482,
      "Company": 5483,
      "aled": 5484,
      "Australian": 5485,
      "definition": 5486,
      "hib": 5487,
      "Met": 5488,
      "Another": 5489,
      "fifth": 5490,
      "coll": 5491,
      "regular": 5492,
      "ni": 5493,
      "Islands": 5494,
      "restaur": 5495,
      "Texas": 5496,
      "defe": 5497,
      "astic": 5498,
      "33": 5499,
      "stra": 5500,
      "lip": 5501,
      "songs": 5502,
      "Canadian": 5503,
      "opin": 5504,
      "temperature": 5505,
      "symbol": 5506,
      "aring": 5507,
      "broke": 5508,
      "III": 5509,
      "code": 5510,
      "separate": 5511,
      "revol": 5512,
      "regions": 5513,
      "sem": 5514,
      "Som": 5515,
      "More": 5516,
      "birds": 5517,
      "ethnic": 5518,
      "Common": 5519,
      "firm": 5520,
      "manager": 5521,
      "speaking": 5522,
      "commercial": 5523,
      "pressure": 5524,
      "pup": 5525,
      "presidential": 5526,
      "48": 5527,
      "Mass": 5528,
      "speech": 5529,
      "easy": 5530,
      "astr": 5531,
      "ya": 5532,
      "below": 5533,
      "humans": 5534,
      "dogs": 5535,
      "literature": 5536,
      "Victoria": 5537,
      "Jul": 5538,
      "swe": 5539,
      "nu": 5540,
      "herself": 5541,
      "evening": 5542,
      "psy": 5543,
      "spoken": 5544,
      "leaving": 5545,
      "competition": 5546,
      "recorded": 5547,
      "programs": 5548,
      "establish": 5549,
      "Revolution": 5550,
      "Rome": 5551,
      "Mu": 5552,
      "Rob": 5553,
      "bacter": 5554,
      "UN": 5555,
      "chen": 5556,
      "ranked": 5557,
      "2016": 5558,
      "Reg": 5559,
      "aj": 5560,
      "2003": 5561,
      "phy": 5562,
      "winter": 5563,
      "increase": 5564,
      "native": 5565,
      "fat": 5566,
      "learned": 5567,
      "produce": 5568,
      "weight": 5569,
      "selling": 5570,
      "piece": 5571,
      "CA": 5572,
      "noon": 5573,
      "ternal": 5574,
      "opening": 5575,
      "ero": 5576,
      "Jane": 5577,
      "bag": 5578,
      "concept": 5579,
      "qual": 5580,
      "basket": 5581,
      "ideas": 5582,
      "transl": 5583,
      "actually": 5584,
      "Sud": 5585,
      "fans": 5586,
      "cel": 5587,
      "185": 5588,
      "forward": 5589,
      "wrong": 5590,
      "(;": 5591,
      "ahead": 5592,
      "starting": 5593,
      "Ze": 5594,
      "battle": 5595,
      "failed": 5596,
      "vey": 5597,
      "limited": 5598,
      "variety": 5599,
      "eds": 5600,
      "Cal": 5601,
      "Otto": 5602,
      "sn": 5603,
      "walking": 5604,
      "isto": 5605,
      "Korea": 5606,
      "Eliza": 5607,
      "sovereign": 5608,
      "odes": 5609,
      "via": 5610,
      "ka": 5611,
      "offer": 5612,
      "Wind": 5613,
      "simple": 5614,
      "construction": 5615,
      "floor": 5616,
      "workers": 5617,
      "Scotland": 5618,
      "vert": 5619,
      "Bay": 5620,
      "beth": 5621,
      "fee": 5622,
      "bri": 5623,
      "largely": 5624,
      "journal": 5625,
      "Gover": 5626,
      "continue": 5627,
      "achi": 5628,
      "ashion": 5629,
      "Bet": 5630,
      "micro": 5631,
      "sand": 5632,
      "bs": 5633,
      "izing": 5634,
      "operation": 5635,
      "nut": 5636,
      "belong": 5637,
      "Virginia": 5638,
      "Music": 5639,
      "increased": 5640,
      "32": 5641,
      "extreme": 5642,
      "raised": 5643,
      "Sim": 5644,
      "ucky": 5645,
      "counter": 5646,
      "serve": 5647,
      "iles": 5648,
      "Association": 5649,
      "Sir": 5650,
      "executive": 5651,
      "tourn": 5652,
      "pool": 5653,
      "cam": 5654,
      "complex": 5655,
      "discuss": 5656,
      "smaller": 5657,
      "historical": 5658,
      "studies": 5659,
      "cells": 5660,
      "primarily": 5661,
      "Found": 5662,
      "tur": 5663,
      "quality": 5664,
      "nar": 5665,
      "strict": 5666,
      "transport": 5667,
      "paint": 5668,
      "length": 5669,
      "Off": 5670,
      "beha": 5671,
      "Arch": 5672,
      "normal": 5673,
      "py": 5674,
      "ki": 5675,
      "aging": 5676,
      "36": 5677,
      "buildings": 5678,
      "forest": 5679,
      "skill": 5680,
      "spirit": 5681,
      "greatest": 5682,
      "themat": 5683,
      "killing": 5684,
      "Chic": 5685,
      "Ele": 5686,
      "eating": 5687,
      "Albert": 5688,
      "isl": 5689,
      "hum": 5690,
      "Mur": 5691,
      "features": 5692,
      "ams": 5693,
      "required": 5694,
      "collection": 5695,
      "Ros": 5696,
      "toward": 5697,
      "vote": 5698,
      "Southern": 5699,
      "nasty": 5700,
      "Jef": 5701,
      "Republican": 5702,
      "stars": 5703,
      "domestic": 5704,
      "agreed": 5705,
      "likes": 5706,
      "snow": 5707,
      "Nap": 5708,
      "tle": 5709,
      "seek": 5710,
      "ounds": 5711,
      "CE": 5712,
      "ems": 5713,
      "thinking": 5714,
      "iving": 5715,
      "gain": 5716,
      "needs": 5717,
      "Ira": 5718,
      "Bor": 5719,
      "compr": 5720,
      "Once": 5721,
      "ases": 5722,
      "dark": 5723,
      "etic": 5724,
      "benef": 5725,
      "annel": 5726,
      "uit": 5727,
      "spend": 5728,
      "headquar": 5729,
      "emot": 5730,
      "stein": 5731,
      "talking": 5732,
      "relationship": 5733,
      "2001": 5734,
      "Penn": 5735,
      "responsible": 5736,
      "insp": 5737,
      "derived": 5738,
      "Fre": 5739,
      "Both": 5740,
      "arms": 5741,
      "Chicago": 5742,
      "attacks": 5743,
      "Apple": 5744,
      "Fol": 5745,
      "daily": 5746,
      "ption": 5747,
      "Georg": 5748,
      "flag": 5749,
      "Iraq": 5750,
      "usual": 5751,
      "universities": 5752,
      "Sar": 5753,
      "agency": 5754,
      "signed": 5755,
      "prosecut": 5756,
      "Braz": 5757,
      "dev": 5758,
      "Greece": 5759,
      "results": 5760,
      "Williams": 5761,
      "alleged": 5762,
      "stone": 5763,
      "anc": 5764,
      "Even": 5765,
      "38": 5766,
      "iang": 5767,
      "eval": 5768,
      "hearing": 5769,
      "Tor": 5770,
      "elements": 5771,
      "cars": 5772,
      "meeting": 5773,
      "lawyer": 5774,
      "sens": 5775,
      "fan": 5776,
      "Minister": 5777,
      "300": 5778,
      "condition": 5779,
      "Three": 5780,
      "afternoon": 5781,
      "cli": 5782,
      "necess": 5783,
      "swim": 5784,
      "Da": 5785,
      "ume": 5786,
      "Mos": 5787,
      "Civ": 5788,
      "Federal": 5789,
      "appointed": 5790,
      "repe": 5791,
      "isters": 5792,
      "nice": 5793,
      "load": 5794,
      "hun": 5795,
      "conflict": 5796,
      "Jeff": 5797,
      "porary": 5798,
      "ker": 5799,
      "conserv": 5800,
      "perfect": 5801,
      "cool": 5802,
      "ron": 5803,
      "venue": 5804,
      "Che": 5805,
      "bird": 5806,
      "previously": 5807,
      "achieve": 5808,
      "content": 5809,
      "clus": 5810,
      "plane": 5811,
      "activity": 5812,
      "peror": 5813,
      "aches": 5814,
      "Under": 5815,
      "iate": 5816,
      "mail": 5817,
      "questions": 5818,
      "formal": 5819,
      "Jose": 5820,
      "wenty": 5821,
      "records": 5822,
      "subsequ": 5823,
      "defense": 5824,
      "seemed": 5825,
      "tu": 5826,
      "biggest": 5827,
      "Sto": 5828,
      "nations": 5829,
      "cles": 5830,
      "wild": 5831,
      "haps": 5832,
      "spokesman": 5833,
      "freed": 5834,
      "operating": 5835,
      "Academ": 5836,
      "clothes": 5837,
      "Cub": 5838,
      "rise": 5839,
      "citation": 5840,
      "window": 5841,
      "lywood": 5842,
      "purch": 5843,
      "mobile": 5844,
      "iff": 5845,
      "master": 5846,
      "royal": 5847,
      "division": 5848,
      "Mont": 5849,
      "Haw": 5850,
      "erc": 5851,
      "cancer": 5852,
      "religion": 5853,
      "dinner": 5854,
      "eves": 5855,
      "sentence": 5856,
      "tall": 5857,
      "experim": 5858,
      "laws": 5859,
      "warm": 5860,
      "Time": 5861,
      "Art": 5862,
      "senior": 5863,
      "ari": 5864,
      "nearby": 5865,
      "ower": 5866,
      "aven": 5867,
      "Well": 5868,
      "Islamic": 5869,
      "completely": 5870,
      "iced": 5871,
      "Tri": 5872,
      "Brazil": 5873,
      "dio": 5874,
      "demand": 5875,
      "portun": 5876,
      "greater": 5877,
      "Ron": 5878,
      "BI": 5879,
      "Jewish": 5880,
      "ES": 5881,
      "Northern": 5882,
      "sources": 5883,
      "review": 5884,
      "extens": 5885,
      "location": 5886,
      "element": 5887,
      "inger": 5888,
      "command": 5889,
      "neg": 5890,
      "pers": 5891,
      "veh": 5892,
      "identified": 5893,
      "ato": 5894,
      "highly": 5895,
      "training": 5896,
      "Elizabeth": 5897,
      "helps": 5898,
      "isher": 5899,
      "rout": 5900,
      "prep": 5901,
      "appearance": 5902,
      "pi": 5903,
      "opportun": 5904,
      "sales": 5905,
      "expensive": 5906,
      "Armen": 5907,
      "helping": 5908,
      "residents": 5909,
      "plans": 5910,
      "uals": 5911,
      "incorpor": 5912,
      "village": 5913,
      "conditions": 5914,
      "Carolina": 5915,
      "ester": 5916,
      "1950": 5917,
      "consists": 5918,
      "heavy": 5919,
      "excited": 5920,
      "academ": 5921,
      "artist": 5922,
      "promin": 5923,
      "behavi": 5924,
      "ami": 5925,
      "Law": 5926,
      "lack": 5927,
      "mainly": 5928,
      "iana": 5929,
      "Later": 5930,
      "destroy": 5931,
      "female": 5932,
      "Before": 5933,
      "powers": 5934,
      "Dar": 5935,
      "quiet": 5936,
      "ett": 5937,
      "regul": 5938,
      "nomin": 5939,
      "unit": 5940,
      "mechan": 5941,
      "eye": 5942,
      "Institute": 5943,
      "resour": 5944,
      "graduate": 5945,
      "account": 5946,
      "Because": 5947,
      "entered": 5948,
      "Civil": 5949,
      "thr": 5950,
      "Micro": 5951,
      "eration": 5952,
      "recognized": 5953,
      "possib": 5954,
      "Pen": 5955,
      "ita": 5956,
      "copy": 5957,
      "improve": 5958,
      "treatment": 5959,
      "Democratic": 5960,
      "burn": 5961,
      "Distr": 5962,
      "\"),": 5963,
      "climate": 5964,
      "custo": 5965,
      "Star": 5966,
      "sud": 5967,
      "Edward": 5968,
      "path": 5969,
      "ender": 5970,
      "chester": 5971,
      "sele": 5972,
      "18th": 5973,
      "architecture": 5974,
      "Pruss": 5975,
      "unched": 5976,
      "rank": 5977,
      "cot": 5978,
      "check": 5979,
      "Bell": 5980,
      "value": 5981,
      "rat": 5982,
      "offered": 5983,
      "Bush": 5984,
      "Pan": 5985,
      "gi": 5986,
      "flight": 5987,
      "talked": 5988,
      "declared": 5989,
      "philosophy": 5990,
      "180": 5991,
      "sets": 5992,
      "broken": 5993,
      "page": 5994,
      "cerem": 5995,
      "dollars": 5996,
      "rules": 5997,
      "fashion": 5998,
      "stren": 5999,
      "Sand": 6000,
      "guil": 6001,
      "letters": 6002,
      "decades": 6003,
      "iation": 6004,
      "parties": 6005,
      "metal": 6006,
      "uk": 6007,
      "CD": 6008,
      "Ty": 6009,
      "Ottoman": 6010,
      "picture": 6011,
      "47": 6012,
      "marriage": 6013,
      "ously": 6014,
      "oma": 6015,
      "feed": 6016,
      "union": 6017,
      "occas": 6018,
      "classical": 6019,
      "Olympics": 6020,
      "itants": 6021,
      "categ": 6022,
      "product": 6023,
      "sexual": 6024,
      "Cy": 6025,
      "ingu": 6026,
      "DNA": 6027,
      "mental": 6028,
      "performed": 6029,
      "oph": 6030,
      "powerful": 6031,
      "ivity": 6032,
      "37": 6033,
      "crow": 6034,
      "inte": 6035,
      "irt": 6036,
      "2002": 6037,
      "structure": 6038,
      "itzer": 6039,
      "Office": 6040,
      "Mod": 6041,
      "cake": 6042,
      "numerous": 6043,
      "tournament": 6044,
      "basketball": 6045,
      "Kar": 6046,
      "Anne": 6047,
      "Jesus": 6048,
      "faces": 6049,
      "istry": 6050,
      "stitutions": 6051,
      "tainment": 6052,
      "contains": 6053,
      "Gar": 6054,
      "icks": 6055,
      "streng": 6056,
      "crime": 6057,
      "Ken": 6058,
      "igned": 6059,
      "yan": 6060,
      "Tu": 6061,
      "ses": 6062,
      "surface": 6063,
      "BA": 6064,
      "brand": 6065,
      "denly": 6066,
      "pian": 6067,
      "Best": 6068,
      "possess": 6069,
      "citizens": 6070,
      "gard": 6071,
      "Nav": 6072,
      "Sci": 6073,
      "cting": 6074,
      "artists": 6075,
      "industrial": 6076,
      "closed": 6077,
      "Ti": 6078,
      "digital": 6079,
      "purpose": 6080,
      "lunch": 6081,
      "Johnson": 6082,
      "skin": 6083,
      "meant": 6084,
      "regional": 6085,
      "Budd": 6086,
      "ola": 6087,
      "smo": 6088,
      "vies": 6089,
      "reve": 6090,
      "safe": 6091,
      "Like": 6092,
      "Over": 6093,
      "marked": 6094,
      "dance": 6095,
      "Mat": 6096,
      "rare": 6097,
      "request": 6098,
      "itation": 6099,
      "worried": 6100,
      "hang": 6101,
      "resist": 6102,
      "39": 6103,
      "Good": 6104,
      "multip": 6105,
      "cream": 6106,
      "exact": 6107,
      "prime": 6108,
      "boat": 6109,
      "Santa": 6110,
      "minister": 6111,
      "escap": 6112,
      "fund": 6113,
      "phe": 6114,
      "extra": 6115,
      "diale": 6116,
      "demon": 6117,
      "ician": 6118,
      "wouldn": 6119,
      "42": 6120,
      "territories": 6121,
      "polic": 6122,
      "influenced": 6123,
      "league": 6124,
      "visited": 6125,
      "troops": 6126,
      "ray": 6127,
      "atom": 6128,
      "shared": 6129,
      "liber": 6130,
      "transfer": 6131,
      "alty": 6132,
      "Swed": 6133,
      "watched": 6134,
      "owner": 6135,
      "ager": 6136,
      "mel": 6137,
      "response": 6138,
      "require": 6139,
      "completed": 6140,
      "nav": 6141,
      "horse": 6142,
      "forts": 6143,
      "figure": 6144,
      "serving": 6145,
      "drive": 6146,
      "icts": 6147,
      "iling": 6148,
      "portion": 6149,
      "bud": 6150,
      "AT": 6151,
      "expect": 6152,
      "exerc": 6153,
      "gency": 6154,
      "investigation": 6155,
      "stood": 6156,
      "feeling": 6157,
      "broadcast": 6158,
      "museum": 6159,
      "Amy": 6160,
      "branch": 6161,
      "fix": 6162,
      "mention": 6163,
      "numbers": 6164,
      "provin": 6165,
      "vary": 6166,
      "Lee": 6167,
      "prior": 6168,
      "zz": 6169,
      "beg": 6170,
      "fects": 6171,
      "Inter": 6172,
      "levels": 6173,
      "gained": 6174,
      "log": 6175,
      "Hall": 6176,
      "calls": 6177,
      "imag": 6178,
      "Gl": 6179,
      "launched": 6180,
      "despite": 6181,
      "Billy": 6182,
      "runs": 6183,
      "screen": 6184,
      "rated": 6185,
      "note": 6186,
      "rob": 6187,
      "Dad": 6188,
      "progress": 6189,
      "vac": 6190,
      "agon": 6191,
      "send": 6192,
      "document": 6193,
      "acting": 6194,
      "Academy": 6195,
      "cow": 6196,
      "aircraft": 6197,
      "thousands": 6198,
      "CO": 6199,
      "pects": 6200,
      "picked": 6201,
      "Chapter": 6202,
      "psych": 6203,
      "yle": 6204,
      "advant": 6205,
      "mist": 6206,
      "eless": 6207,
      "situation": 6208,
      "ellig": 6209,
      "bing": 6210,
      "republic": 6211,
      "Group": 6212,
      "Sax": 6213,
      "intellig": 6214,
      "fiel": 6215,
      "bio": 6216,
      "officers": 6217,
      "AN": 6218,
      "Follow": 6219,
      "ua": 6220,
      "settlement": 6221,
      "Rol": 6222,
      "carried": 6223,
      "shall": 6224,
      "brothers": 6225,
      "sitting": 6226,
      "wise": 6227,
      "ao": 6228,
      "System": 6229,
      "fear": 6230,
      "immig": 6231,
      "activities": 6232,
      "Play": 6233,
      "spoke": 6234,
      "Book": 6235,
      "Parliament": 6236,
      "Class": 6237,
      "pron": 6238,
      "authority": 6239,
      "message": 6240,
      "oth": 6241,
      "taught": 6242,
      "Hollywood": 6243,
      "Mountain": 6244,
      "defeat": 6245,
      "saf": 6246,
      "Asian": 6247,
      "ride": 6248,
      "Battle": 6249,
      "contest": 6250,
      "400": 6251,
      "moon": 6252,
      "covers": 6253,
      "apped": 6254,
      "theat": 6255,
      "aces": 6256,
      "fro": 6257,
      "commit": 6258,
      "incident": 6259,
      "Portugu": 6260,
      "administration": 6261,
      "46": 6262,
      "brief": 6263,
      "Mill": 6264,
      "ador": 6265,
      ".'": 6266,
      "Lad": 6267,
      "resh": 6268,
      "chick": 6269,
      "tt": 6270,
      "seems": 6271,
      "Secretary": 6272,
      "aland": 6273,
      "indu": 6274,
      "Win": 6275,
      "ements": 6276,
      "convicted": 6277,
      "weather": 6278,
      "Wales": 6279,
      "Second": 6280,
      "Bey": 6281,
      "tests": 6282,
      "BBC": 6283,
      "rom": 6284,
      "Turk": 6285,
      "District": 6286,
      "grade": 6287,
      "anth": 6288,
      "judge": 6289,
      "Here": 6290,
      "address": 6291,
      "tells": 6292,
      "roll": 6293,
      "touch": 6294,
      "icip": 6295,
      "trees": 6296,
      "neighborhood": 6297,
      "Portuguese": 6298,
      "continent": 6299,
      "Rock": 6300,
      "vention": 6301,
      "Andrew": 6302,
      "Fer": 6303,
      "scientists": 6304,
      "inspired": 6305,
      "Bir": 6306,
      "grees": 6307,
      "democr": 6308,
      "plement": 6309,
      "affil": 6310,
      "Glo": 6311,
      "struct": 6312,
      "basic": 6313,
      "watching": 6314,
      "fellow": 6315,
      "insula": 6316,
      "district": 6317,
      "jected": 6318,
      "winner": 6319,
      "wed": 6320,
      "campus": 6321,
      "Ver": 6322,
      "mates": 6323,
      "agreement": 6324,
      "hunt": 6325,
      "perial": 6326,
      "guilty": 6327,
      "jumped": 6328,
      "Mike": 6329,
      "pir": 6330,
      "department": 6331,
      "Mom": 6332,
      "jok": 6333,
      "supported": 6334,
      "Alexander": 6335,
      "degrees": 6336,
      "Ha": 6337,
      "soldiers": 6338,
      "provides": 6339,
      "combined": 6340,
      "Finally": 6341,
      "Rog": 6342,
      "medicine": 6343,
      "earliest": 6344,
      "income": 6345,
      "sole": 6346,
      "syl": 6347,
      "spl": 6348,
      "Senate": 6349,
      "Last": 6350,
      "accepted": 6351,
      "Greg": 6352,
      "drugs": 6353,
      "mes": 6354,
      "voc": 6355,
      "reli": 6356,
      "Big": 6357,
      "kitchen": 6358,
      "editor": 6359,
      "managed": 6360,
      "amaz": 6361,
      "effects": 6362,
      "49": 6363,
      "Dick": 6364,
      "cia": 6365,
      "demonstr": 6366,
      "Jess": 6367,
      "Champion": 6368,
      "1960s": 6369,
      "ordered": 6370,
      "jury": 6371,
      "scale": 6372,
      "Irish": 6373,
      "ota": 6374,
      "users": 6375,
      "Korean": 6376,
      "refers": 6377,
      "atures": 6378,
      "applied": 6379,
      "bright": 6380,
      "fighting": 6381,
      "honor": 6382,
      "wing": 6383,
      "regard": 6384,
      "stream": 6385,
      "Niger": 6386,
      "isation": 6387,
      "witness": 6388,
      "granted": 6389,
      "Each": 6390,
      "replaced": 6391,
      "circ": 6392,
      "caught": 6393,
      "receive": 6394,
      "defeated": 6395,
      "igen": 6396,
      "Napole": 6397,
      "assa": 6398,
      "perman": 6399,
      "missing": 6400,
      "holds": 6401,
      "Lis": 6402,
      "causes": 6403,
      "ghan": 6404,
      "eggs": 6405,
      "institutions": 6406,
      "ardi": 6407,
      "ounder": 6408,
      "grass": 6409,
      "legisl": 6410,
      "organiz": 6411,
      "library": 6412,
      "dynasty": 6413,
      "AC": 6414,
      "compon": 6415,
      "agan": 6416,
      "meat": 6417,
      "uset": 6418,
      "arent": 6419,
      "rey": 6420,
      "challeng": 6421,
      "huge": 6422,
      "price": 6423,
      "identity": 6424,
      "filled": 6425,
      "PC": 6426,
      "usetts": 6427,
      "capac": 6428,
      "achusetts": 6429,
      "pa": 6430,
      "Liby": 6431,
      "empire": 6432,
      "Wall": 6433,
      "proposed": 6434,
      "weekend": 6435,
      "weap": 6436,
      "Massachusetts": 6437,
      "subs": 6438,
      "Life": 6439,
      "Ok": 6440,
      "vania": 6441,
      "Tran": 6442,
      "inet": 6443,
      "seconds": 6444,
      "cry": 6445,
      "Supreme": 6446,
      "Davis": 6447,
      "inno": 6448,
      "sylvania": 6449,
      "affic": 6450,
      "invas": 6451,
      "altern": 6452,
      "suggested": 6453,
      "von": 6454,
      "Pres": 6455,
      "seas": 6456,
      "sched": 6457,
      "Er": 6458,
      "presents": 6459,
      "organisms": 6460,
      "Child": 6461,
      "historic": 6462,
      "va": 6463,
      "difference": 6464,
      "elev": 6465,
      "straight": 6466,
      "movies": 6467,
      "fly": 6468,
      "beyond": 6469,
      "twice": 6470,
      "ura": 6471,
      "administrative": 6472,
      "tex": 6473,
      "hatt": 6474,
      "IN": 6475,
      "Young": 6476,
      "target": 6477,
      "liver": 6478,
      "revolution": 6479,
      "frequently": 6480,
      "Following": 6481,
      "16th": 6482,
      "controlled": 6483,
      "BS": 6484,
      "multiple": 6485,
      "planned": 6486,
      "Hill": 6487,
      "Our": 6488,
      "Univers": 6489,
      "classes": 6490,
      "McC": 6491,
      "mathemat": 6492,
      "distinct": 6493,
      "missed": 6494,
      "ez": 6495,
      "operations": 6496,
      "enna": 6497,
      "rapid": 6498,
      "employe": 6499,
      "isn": 6500,
      "determined": 6501,
      "Gal": 6502,
      "advent": 6503,
      "hundreds": 6504,
      "mate": 6505,
      "happen": 6506,
      "About": 6507,
      "Jones": 6508,
      "Tele": 6509,
      "younger": 6510,
      "Ru": 6511,
      "houses": 6512,
      "Fred": 6513,
      "yard": 6514,
      "mir": 6515,
      "nie": 6516,
      "shout": 6517,
      "spring": 6518,
      "55": 6519,
      "refused": 6520,
      "Jersey": 6521,
      "Tal": 6522,
      "laugh": 6523,
      "anch": 6524,
      "census": 6525,
      "asser": 6526,
      "mond": 6527,
      "belief": 6528,
      "motor": 6529,
      "sphere": 6530,
      ");": 6531,
      "44": 6532,
      "god": 6533,
      "agric": 6534,
      "jobs": 6535,
      "comfort": 6536,
      "latest": 6537,
      "athlet": 6538,
      "memory": 6539,
      "Scottish": 6540,
      "efforts": 6541,
      "Zealand": 6542,
      "Award": 6543,
      "Cat": 6544,
      "decade": 6545,
      "agricult": 6546,
      "carry": 6547,
      "spell": 6548,
      "1999": 6549,
      "ump": 6550,
      "pictures": 6551,
      "Mah": 6552,
      "speed": 6553,
      "labor": 6554,
      "safety": 6555,
      "knows": 6556,
      "Does": 6557,
      "lock": 6558,
      "documents": 6559,
      "dangerous": 6560,
      "Max": 6561,
      "Jews": 6562,
      "ange": 6563,
      "FBI": 6564,
      "clud": 6565,
      "Sus": 6566,
      "borders": 6567,
      "protect": 6568,
      "surprised": 6569,
      "owners": 6570,
      "anda": 6571,
      "issued": 6572,
      "painting": 6573,
      "trouble": 6574,
      "equal": 6575,
      "measure": 6576,
      "uran": 6577,
      "adium": 6578,
      "colleg": 6579,
      "fairs": 6580,
      "reports": 6581,
      "lav": 6582,
      "Tour": 6583,
      "looks": 6584,
      "Early": 6585,
      "realized": 6586,
      "jun": 6587,
      "Tw": 6588,
      "hur": 6589,
      "angry": 6590,
      "Nick": 6591,
      "bill": 6592,
      "folk": 6593,
      "Liber": 6594,
      "proud": 6595,
      "initially": 6596,
      "politics": 6597,
      "answered": 6598,
      "Pennsylvania": 6599,
      "sha": 6600,
      "integr": 6601,
      "150": 6602,
      "oples": 6603,
      "driver": 6604,
      "expanded": 6605,
      "driving": 6606,
      "inhabitants": 6607,
      "save": 6608,
      "ulf": 6609,
      "Nep": 6610,
      "geograph": 6611,
      "Det": 6612,
      "Ant": 6613,
      "Bank": 6614,
      "Donald": 6615,
      "nis": 6616,
      ".)": 6617,
      "concent": 6618,
      "Anth": 6619,
      "positive": 6620,
      "shooting": 6621,
      "heat": 6622,
      "teachers": 6623,
      "noted": 6624,
      "Microsoft": 6625,
      "distance": 6626,
      "fine": 6627,
      "mier": 6628,
      "composed": 6629,
      "Tibet": 6630,
      "semb": 6631,
      "trib": 6632,
      "1989": 6633,
      "Pop": 6634,
      "ada": 6635,
      "titles": 6636,
      "math": 6637,
      "Cast": 6638,
      "1992": 6639,
      "USA": 6640,
      "claims": 6641,
      "avoid": 6642,
      "founder": 6643,
      "salary": 6644,
      "Kim": 6645,
      "planet": 6646,
      "Also": 6647,
      "Resear": 6648,
      "encies": 6649,
      "Prin": 6650,
      "Den": 6651,
      "Edu": 6652,
      "adel": 6653,
      "TO": 6654,
      "section": 6655,
      "basis": 6656,
      "Constitution": 6657,
      "struggl": 6658,
      "surprise": 6659,
      "ED": 6660,
      "orders": 6661,
      "yellow": 6662,
      "hurt": 6663,
      "abs": 6664,
      "writers": 6665,
      "Fort": 6666,
      "Post": 6667,
      "iqu": 6668,
      "Broad": 6669,
      "1980s": 6670,
      "bordered": 6671,
      "emerged": 6672,
      "itude": 6673,
      "achieved": 6674,
      "shown": 6675,
      "Francisco": 6676,
      "computers": 6677,
      "ini": 6678,
      "icket": 6679,
      "reporters": 6680,
      "Georgia": 6681,
      "Net": 6682,
      "susp": 6683,
      "distingu": 6684,
      "clock": 6685,
      "visions": 6686,
      "custom": 6687,
      "Foot": 6688,
      "Instead": 6689,
      "streets": 6690,
      "Viet": 6691,
      "asts": 6692,
      "veget": 6693,
      "tained": 6694,
      "Barack": 6695,
      "costs": 6696,
      "Despite": 6697,
      "traffic": 6698,
      "waiting": 6699,
      "dropped": 6700,
      "ureau": 6701,
      "contro": 6702,
      "ampions": 6703,
      "unique": 6704,
      "Pers": 6705,
      "chose": 6706,
      "scene": 6707,
      "coach": 6708,
      "Sil": 6709,
      "tired": 6710,
      "sear": 6711,
      "Afghan": 6712,
      "rect": 6713,
      "explained": 6714,
      "ju": 6715,
      "ultim": 6716,
      "actress": 6717,
      "Hal": 6718,
      "Ray": 6719,
      "scholar": 6720,
      "ying": 6721,
      "doctors": 6722,
      "connected": 6723,
      "Bab": 6724,
      "1998": 6725,
      "freedom": 6726,
      "1990": 6727,
      "cod": 6728,
      "pock": 6729,
      "66": 6730,
      "pretty": 6731,
      "cof": 6732,
      "controvers": 6733,
      "Tony": 6734,
      "Rh": 6735,
      "arts": 6736,
      "Human": 6737,
      "gives": 6738,
      "dict": 6739,
      "Mich": 6740,
      "image": 6741,
      "1996": 6742,
      "equip": 6743,
      "candidate": 6744,
      "listed": 6745,
      "Service": 6746,
      "iar": 6747,
      "Fam": 6748,
      "staff": 6749,
      "professor": 6750,
      "PA": 6751,
      "sites": 6752,
      "Syria": 6753,
      "dan": 6754,
      "Stand": 6755,
      "symp": 6756,
      "holding": 6757,
      "suffered": 6758,
      "vard": 6759,
      "orial": 6760,
      "earned": 6761,
      "baseball": 6762,
      "faced": 6763,
      "icles": 6764,
      "34": 6765,
      "interesting": 6766,
      "debut": 6767,
      "Sur": 6768,
      "occurred": 6769,
      "throw": 6770,
      "Let": 6771,
      "leaves": 6772,
      "additional": 6773,
      "analy": 6774,
      "Hong": 6775,
      "85": 6776,
      "Dire": 6777,
      "Four": 6778,
      "firmed": 6779,
      "pulled": 6780,
      "Def": 6781,
      "invited": 6782,
      "restaurant": 6783,
      "Sally": 6784,
      "Bul": 6785,
      "feature": 6786,
      "machine": 6787,
      "igan": 6788,
      "appears": 6789,
      "Census": 6790,
      "enge": 6791,
      "communication": 6792,
      "65": 6793,
      "peoples": 6794,
      "guitar": 6795,
      "resources": 6796,
      "Hot": 6797,
      "bles": 6798,
      "effort": 6799,
      "aud": 6800,
      "deliver": 6801,
      "sac": 6802,
      "individuals": 6803,
      "amb": 6804,
      "invented": 6805,
      "Prime": 6806,
      "lah": 6807,
      "apparent": 6808,
      "cip": 6809,
      "fit": 6810,
      "Lake": 6811,
      "aling": 6812,
      "compared": 6813,
      "carbon": 6814,
      "sixth": 6815,
      "satell": 6816,
      "Brook": 6817,
      "potential": 6818,
      "1970s": 6819,
      "creation": 6820,
      "devices": 6821,
      "cultures": 6822,
      "rang": 6823,
      "remaining": 6824,
      "99": 6825,
      "cru": 6826,
      "bacteria": 6827,
      "illa": 6828,
      "generation": 6829,
      "headquarters": 6830,
      "changing": 6831,
      "nickn": 6832,
      "property": 6833,
      "PS": 6834,
      "Rad": 6835,
      "settled": 6836,
      "brown": 6837,
      "myth": 6838,
      "IV": 6839,
      "oxy": 6840,
      "raine": 6841,
      "twenty": 6842,
      "Soci": 6843,
      "Tenn": 6844,
      "reasons": 6845,
      "rant": 6846,
      "choose": 6847,
      "reser": 6848,
      "resulted": 6849,
      "Summer": 6850,
      "Yes": 6851,
      "format": 6852,
      "Woods": 6853,
      "Hun": 6854,
      "formally": 6855,
      "impress": 6856,
      "breakfast": 6857,
      "iated": 6858,
      "bat": 6859,
      "quarter": 6860,
      "fields": 6861,
      "lit": 6862,
      "Ind": 6863,
      "academic": 6864,
      "presence": 6865,
      "damage": 6866,
      "Anna": 6867,
      "ysis": 6868,
      "reign": 6869,
      "Mexican": 6870,
      "doub": 6871,
      "Though": 6872,
      "plied": 6873,
      "izes": 6874,
      "1997": 6875,
      "autonom": 6876,
      "severe": 6877,
      "kee": 6878,
      "calling": 6879,
      "History": 6880,
      "corrup": 6881,
      "device": 6882,
      "pts": 6883,
      "formerly": 6884,
      "singing": 6885,
      "approach": 6886,
      "Little": 6887,
      "Commit": 6888,
      "Ox": 6889,
      "mut": 6890,
      "tool": 6891,
      "municip": 6892,
      "RI": 6893,
      "Sarah": 6894,
      "gift": 6895,
      "Bol": 6896,
      "Clar": 6897,
      "Face": 6898,
      "zy": 6899,
      "budget": 6900,
      "recomm": 6901,
      "valu": 6902,
      "fought": 6903,
      "wan": 6904,
      "iP": 6905,
      "Land": 6906,
      "install": 6907,
      "sky": 6908,
      "truck": 6909,
      "consum": 6910,
      "lots": 6911,
      "goals": 6912,
      "contem": 6913,
      "childhood": 6914,
      "ordinary": 6915,
      "regarded": 6916,
      "Jon": 6917,
      "Ker": 6918,
      "principal": 6919,
      "inse": 6920,
      "nd": 6921,
      "exhib": 6922,
      "Long": 6923,
      "milk": 6924,
      "icated": 6925,
      "ashed": 6926,
      "drew": 6927,
      "strange": 6928,
      "management": 6929,
      "criminal": 6930,
      "disci": 6931,
      "usion": 6932,
      "skills": 6933,
      "sembly": 6934,
      "stations": 6935,
      "relations": 6936,
      "95": 6937,
      "ado": 6938,
      "Will": 6939,
      "units": 6940,
      "istered": 6941,
      "gle": 6942,
      "icted": 6943,
      "1990s": 6944,
      "teaching": 6945,
      "ining": 6946,
      "launch": 6947,
      "hattan": 6948,
      "culation": 6949,
      "flowers": 6950,
      "perhaps": 6951,
      "onym": 6952,
      "mixed": 6953,
      "healthy": 6954,
      "ancy": 6955,
      "passeng": 6956,
      "Manhattan": 6957,
      "Romney": 6958,
      "ranean": 6959,
      "poly": 6960,
      "Kr": 6961,
      "details": 6962,
      "agree": 6963,
      "estival": 6964,
      "Record": 6965,
      "Lord": 6966,
      "kin": 6967,
      "studied": 6968,
      "()": 6969,
      "afr": 6970,
      "vest": 6971,
      "interested": 6972,
      "Coast": 6973,
      "Hy": 6974,
      "Rus": 6975,
      "iest": 6976,
      "disput": 6977,
      "choice": 6978,
      "emphas": 6979,
      "Club": 6980,
      "Age": 6981,
      "batt": 6982,
      "rence": 6983,
      "Prize": 6984,
      "studio": 6985,
      "Camp": 6986,
      "17th": 6987,
      "amin": 6988,
      "lose": 6989,
      "Hor": 6990,
      "creating": 6991,
      "colate": 6992,
      "bear": 6993,
      "ocean": 6994,
      "Lew": 6995,
      "describe": 6996,
      "necessary": 6997,
      "relatively": 6998,
      "inde": 6999,
      "Johnny": 7000,
      "communities": 7001,
      "iterranean": 7002,
      "infr": 7003,
      "awarded": 7004,
      "pil": 7005,
      "scholars": 7006,
      "Yu": 7007,
      "producer": 7008,
      "Daniel": 7009,
      "Ari": 7010,
      "Museum": 7011,
      "directed": 7012,
      "bid": 7013,
      "(,": 7014,
      "bicy": 7015,
      "bodies": 7016,
      "closely": 7017,
      "Ash": 7018,
      "Awards": 7019,
      "bin": 7020,
      "OS": 7021,
      "1930": 7022,
      "intended": 7023,
      "Argent": 7024,
      "peak": 7025,
      "contact": 7026,
      "responsib": 7027,
      "newspapers": 7028,
      "iting": 7029,
      "Cro": 7030,
      "oppos": 7031,
      "matches": 7032,
      "Columb": 7033,
      "ga": 7034,
      "asc": 7035,
      "FI": 7036,
      "Through": 7037,
      "pig": 7038,
      "behavior": 7039,
      "Mediterranean": 7040,
      "defend": 7041,
      "sick": 7042,
      "faith": 7043,
      "prominent": 7044,
      "chicken": 7045,
      "Real": 7046,
      "Treat": 7047,
      "plat": 7048,
      "contract": 7049,
      "Madrid": 7050,
      "double": 7051,
      "excit": 7052,
      "ficient": 7053,
      "BM": 7054,
      "Buck": 7055,
      "fresh": 7056,
      "ishes": 7057,
      "Sever": 7058,
      "terri": 7059,
      "conqu": 7060,
      "airs": 7061,
      "ere": 7062,
      "allows": 7063,
      "core": 7064,
      "Techn": 7065,
      "cious": 7066,
      "ulty": 7067,
      "Palest": 7068,
      "Cze": 7069,
      "resulting": 7070,
      "Fil": 7071,
      "Sher": 7072,
      "Society": 7073,
      "orient": 7074,
      "article": 7075,
      "1994": 7076,
      "64": 7077,
      "Nad": 7078,
      "maxim": 7079,
      "Ted": 7080,
      "governor": 7081,
      "advis": 7082,
      "attended": 7083,
      "voted": 7084,
      "porter": 7085,
      "aware": 7086,
      "penalty": 7087,
      "rot": 7088,
      "Organ": 7089,
      "shoes": 7090,
      "hopes": 7091,
      "Hom": 7092,
      "Napoleon": 7093,
      "oles": 7094,
      "Windows": 7095,
      "Miami": 7096,
      "anne": 7097,
      "cé": 7098,
      "Ali": 7099,
      "finish": 7100,
      "eigh": 7101,
      "Ur": 7102,
      "Press": 7103,
      "unte": 7104,
      "legs": 7105,
      "stated": 7106,
      "dete": 7107,
      "myself": 7108,
      "Joseph": 7109,
      "Christianity": 7110,
      "explor": 7111,
      "Govern": 7112,
      "pati": 7113,
      "cycl": 7114,
      "journey": 7115,
      "icide": 7116,
      "coffee": 7117,
      "iring": 7118,
      "grown": 7119,
      "comedy": 7120,
      "catch": 7121,
      "atab": 7122,
      "Emperor": 7123,
      "attend": 7124,
      "tennis": 7125,
      "practices": 7126,
      "Di": 7127,
      "adelph": 7128,
      "Nic": 7129,
      "1991": 7130,
      "materials": 7131,
      "mountains": 7132,
      "Histor": 7133,
      "bike": 7134,
      "Ko": 7135,
      "diction": 7136,
      "script": 7137,
      "mole": 7138,
      "pattern": 7139,
      "truth": 7140,
      "award": 7141,
      "violence": 7142,
      "supporters": 7143,
      "hydro": 7144,
      "popularity": 7145,
      "Yale": 7146,
      "foc": 7147,
      "\").": 7148,
      "agers": 7149,
      "planning": 7150,
      "cohol": 7151,
      "DP": 7152,
      "tery": 7153,
      "Austria": 7154,
      "advantage": 7155,
      "Philadelph": 7156,
      "Arabic": 7157,
      "chers": 7158,
      "Mun": 7159,
      "Mem": 7160,
      "succeed": 7161,
      "stayed": 7162,
      "Thank": 7163,
      "Philadelphia": 7164,
      "Spr": 7165,
      "tel": 7166,
      "Jr": 7167,
      "reference": 7168,
      "afraid": 7169,
      "homes": 7170,
      "victims": 7171,
      "lake": 7172,
      "Health": 7173,
      "88": 7174,
      "Jean": 7175,
      "vit": 7176,
      "confirmed": 7177,
      "colleges": 7178,
      "wish": 7179,
      "dated": 7180,
      "kick": 7181,
      "opposition": 7182,
      "direction": 7183,
      "Bron": 7184,
      "itors": 7185,
      "poll": 7186,
      "Poland": 7187,
      "Lind": 7188,
      "ceremony": 7189,
      "indigen": 7190,
      "AS": 7191,
      "implement": 7192,
      "Committee": 7193,
      "represented": 7194,
      "ield": 7195,
      "multi": 7196,
      "communications": 7197,
      "Sing": 7198,
      "Sometimes": 7199,
      "Ford": 7200,
      "hou": 7201,
      "seeing": 7202,
      "zen": 7203,
      "Research": 7204,
      "seventh": 7205,
      "incorporated": 7206,
      "attempted": 7207,
      "DS": 7208,
      "longest": 7209,
      "wearing": 7210,
      "beach": 7211,
      "indigenous": 7212,
      "strength": 7213,
      "ored": 7214,
      "towns": 7215,
      "slight": 7216,
      "injury": 7217,
      "cation": 7218,
      "Your": 7219,
      "Stat": 7220,
      "justice": 7221,
      "nur": 7222,
      "mann": 7223,
      "phones": 7224,
      "reath": 7225,
      "latter": 7226,
      "corner": 7227,
      "standards": 7228,
      "overall": 7229,
      "prefer": 7230,
      "organized": 7231,
      "Lor": 7232,
      "imal": 7233,
      "busy": 7234,
      "objects": 7235,
      "Naz": 7236,
      "kinds": 7237,
      "holiday": 7238,
      "piano": 7239,
      "respond": 7240,
      "Kong": 7241,
      "thinks": 7242,
      "bourne": 7243,
      "76": 7244,
      "onia": 7245,
      "desc": 7246,
      "Anthony": 7247,
      "elections": 7248,
      "woke": 7249,
      "developing": 7250,
      "lady": 7251,
      "debate": 7252,
      "resol": 7253,
      "believes": 7254,
      "aste": 7255,
      "Nether": 7256,
      "constitutional": 7257,
      "covering": 7258,
      "male": 7259,
      "Conne": 7260,
      "Soon": 7261,
      "ission": 7262,
      "invasion": 7263,
      "connection": 7264,
      "Haven": 7265,
      "unders": 7266,
      "Station": 7267,
      "northwest": 7268,
      "Facebook": 7269,
      "constant": 7270,
      "admitted": 7271,
      "theastern": 7272,
      "stores": 7273,
      "roughly": 7274,
      "extremely": 7275,
      "Commission": 7276,
      "Hay": 7277,
      "Modern": 7278,
      "headed": 7279,
      "shape": 7280,
      "destroyed": 7281,
      "lers": 7282,
      "anced": 7283,
      "profit": 7284,
      "Anglo": 7285,
      "lab": 7286,
      "bean": 7287,
      "inton": 7288,
      "schedul": 7289,
      "focused": 7290,
      "trust": 7291,
      "hotel": 7292,
      "contrast": 7293,
      "captured": 7294,
      "toms": 7295,
      "coal": 7296,
      "Oklah": 7297,
      "talent": 7298,
      "dem": 7299,
      "Super": 7300,
      "Bas": 7301,
      "Att": 7302,
      "divers": 7303,
      "Public": 7304,
      "discipl": 7305,
      "initial": 7306,
      "600": 7307,
      "rival": 7308,
      "wonderful": 7309,
      "Rod": 7310,
      "roles": 7311,
      "jur": 7312,
      "Michigan": 7313,
      "serves": 7314,
      "rants": 7315,
      "otic": 7316,
      "elve": 7317,
      "engineering": 7318,
      "infe": 7319,
      "pieces": 7320,
      "nuclear": 7321,
      "Kel": 7322,
      "stances": 7323,
      "Leon": 7324,
      "edia": 7325,
      "amm": 7326,
      "Brian": 7327,
      "apping": 7328,
      "extensive": 7329,
      "Columbia": 7330,
      "stance": 7331,
      "Prof": 7332,
      "label": 7333,
      "provinces": 7334,
      "Die": 7335,
      "ruling": 7336,
      "celona": 7337,
      "---": 7338,
      "Science": 7339,
      "Barcelona": 7340,
      "Oscar": 7341,
      "Foundation": 7342,
      "Az": 7343,
      "Mand": 7344,
      "iron": 7345,
      "1945": 7346,
      "application": 7347,
      "bling": 7348,
      "stress": 7349,
      "Loc": 7350,
      "Tai": 7351,
      "rie": 7352,
      "Stu": 7353,
      "azz": 7354,
      "Football": 7355,
      "itage": 7356,
      "urally": 7357,
      "weak": 7358,
      "task": 7359,
      "Jenny": 7360,
      "wart": 7361,
      "spending": 7362,
      "Dou": 7363,
      "sees": 7364,
      "cris": 7365,
      "asy": 7366,
      "recording": 7367,
      "gian": 7368,
      "items": 7369,
      "breaking": 7370,
      "cription": 7371,
      "parliament": 7372,
      "challenge": 7373,
      "phon": 7374,
      "Manchester": 7375,
      "upper": 7376,
      "compar": 7377,
      "airport": 7378,
      "vince": 7379,
      "Dig": 7380,
      "decis": 7381,
      "expans": 7382,
      "icians": 7383,
      "offers": 7384,
      "explain": 7385,
      "borough": 7386,
      "bra": 7387,
      "Social": 7388,
      "amazing": 7389,
      "alive": 7390,
      "armed": 7391,
      "aded": 7392,
      "gather": 7393,
      "vak": 7394,
      "rig": 7395,
      "Harvard": 7396,
      "Beyon": 7397,
      "Oper": 7398,
      "dia": 7399,
      "notes": 7400,
      "Oklahoma": 7401,
      "Author": 7402,
      "Rose": 7403,
      "begins": 7404,
      "alcohol": 7405,
      "itzerland": 7406,
      "wash": 7407,
      "ounced": 7408,
      "studying": 7409,
      "keeping": 7410,
      "policies": 7411,
      "Beyoncé": 7412,
      "quake": 7413,
      "flat": 7414,
      "kins": 7415,
      "Men": 7416,
      "wel": 7417,
      "institution": 7418,
      "opportunity": 7419,
      "programming": 7420,
      "featured": 7421,
      "Love": 7422,
      "equipment": 7423,
      "wich": 7424,
      "adult": 7425,
      "positions": 7426,
      "Maria": 7427,
      "Gor": 7428,
      "Switzerland": 7429,
      "understanding": 7430,
      "remembered": 7431,
      "ayed": 7432,
      "fortun": 7433,
      "oul": 7434,
      "diverse": 7435,
      "friendly": 7436,
      "Emily": 7437,
      "ione": 7438,
      "unusual": 7439,
      "block": 7440,
      "Hou": 7441,
      "golf": 7442,
      "ano": 7443,
      "constit": 7444,
      "kno": 7445,
      "breath": 7446,
      "yo": 7447,
      "wheel": 7448,
      "establishment": 7449,
      "CC": 7450,
      "Gad": 7451,
      "Afghanistan": 7452,
      "Ryan": 7453,
      "mud": 7454,
      "Free": 7455,
      "ova": 7456,
      "Far": 7457,
      "deaths": 7458,
      "surrounding": 7459,
      "sive": 7460,
      "losing": 7461,
      "existence": 7462,
      "Ohio": 7463,
      "marks": 7464,
      "wire": 7465,
      "volunte": 7466,
      "separated": 7467,
      "chart": 7468,
      "Stephen": 7469,
      "urches": 7470,
      "Kent": 7471,
      "cab": 7472,
      "alp": 7473,
      "sentenced": 7474,
      "photos": 7475,
      "Sue": 7476,
      "Melbourne": 7477,
      "advoc": 7478,
      "Swiss": 7479,
      "ils": 7480,
      "Protest": 7481,
      "til": 7482,
      "physics": 7483,
      "clubs": 7484,
      "permanent": 7485,
      "Pho": 7486,
      "78": 7487,
      "Watch": 7488,
      "Year": 7489,
      "1993": 7490,
      "fruit": 7491,
      "exchange": 7492,
      "audience": 7493,
      "lu": 7494,
      "telephone": 7495,
      "Fried": 7496,
      "hall": 7497,
      "Andy": 7498,
      "Valley": 7499,
      "Portugal": 7500,
      "rub": 7501,
      "oppon": 7502,
      "1995": 7503,
      "occupied": 7504,
      "joint": 7505,
      "vehicle": 7506,
      "enjoyed": 7507,
      "sort": 7508,
      "Bobby": 7509,
      "repeated": 7510,
      "ifying": 7511,
      "argued": 7512,
      "Several": 7513,
      "ala": 7514,
      "influential": 7515,
      "Ba": 7516,
      "impact": 7517,
      "43": 7518,
      "ani": 7519,
      "dates": 7520,
      "removed": 7521,
      "alle": 7522,
      "stan": 7523,
      "shel": 7524,
      "carrying": 7525,
      "Carib": 7526,
      "Jord": 7527,
      "saved": 7528,
      "Dor": 7529,
      "videos": 7530,
      "colonial": 7531,
      "ba": 7532,
      "sought": 7533,
      "Nobel": 7534,
      "importance": 7535,
      "nel": 7536,
      "negot": 7537,
      "Kath": 7538,
      "Rand": 7539,
      "Joey": 7540,
      "conference": 7541,
      "mentioned": 7542,
      "providing": 7543,
      "rose": 7544,
      "Isa": 7545,
      "datab": 7546,
      "conce": 7547,
      "pra": 7548,
      "bath": 7549,
      "risk": 7550,
      "Everyone": 7551,
      "wound": 7552,
      "applications": 7553,
      "reality": 7554,
      "Lau": 7555,
      "presented": 7556,
      "Netherlands": 7557,
      "conver": 7558,
      "bish": 7559,
      "stret": 7560,
      "idi": 7561,
      "Der": 7562,
      "therefore": 7563,
      "Force": 7564,
      "hat": 7565,
      "edition": 7566,
      "covery": 7567,
      "pread": 7568,
      "Government": 7569,
      "continues": 7570,
      "literary": 7571,
      "compass": 7572,
      "clothing": 7573,
      "greatly": 7574,
      "southeast": 7575,
      "Robin": 7576,
      "circum": 7577,
      "restrict": 7578,
      "asking": 7579,
      "contemporary": 7580,
      "visible": 7581,
      "Por": 7582,
      "acid": 7583,
      "depart": 7584,
      "41": 7585,
      "uce": 7586,
      "exclus": 7587,
      "inhabited": 7588,
      "oungest": 7589,
      "epis": 7590,
      "differences": 7591,
      "hr": 7592,
      "shares": 7593,
      "founding": 7594,
      "depending": 7595,
      "earn": 7596,
      "Chief": 7597,
      "score": 7598,
      "methods": 7599,
      "Houston": 7600,
      "crown": 7601,
      "solution": 7602,
      "allowing": 7603,
      "umn": 7604,
      "garden": 7605,
      "millions": 7606,
      "ski": 7607,
      "Roger": 7608,
      "lucky": 7609,
      "pushed": 7610,
      "Vietnam": 7611,
      "68": 7612,
      "wides": 7613,
      "dry": 7614,
      "tren": 7615,
      "genetic": 7616,
      "Beat": 7617,
      "fired": 7618,
      "grapher": 7619,
      "Turkey": 7620,
      "experienced": 7621,
      "exercise": 7622,
      "aine": 7623,
      "seed": 7624,
      "Indon": 7625,
      "visitors": 7626,
      "Indones": 7627,
      "VI": 7628,
      "extended": 7629,
      "northeast": 7630,
      "1988": 7631,
      "operated": 7632,
      "Brad": 7633,
      "refle": 7634,
      "san": 7635,
      "youngest": 7636,
      "hai": 7637,
      "telling": 7638,
      "Bon": 7639,
      "curren": 7640,
      "Jordan": 7641,
      "vation": 7642,
      "facing": 7643,
      "veter": 7644,
      "smart": 7645,
      "limit": 7646,
      "ON": 7647,
      "Corpor": 7648,
      "dut": 7649,
      "ests": 7650,
      "Alice": 7651,
      "pregn": 7652,
      "bury": 7653,
      "gro": 7654,
      "tes": 7655,
      "ogy": 7656,
      "imm": 7657,
      "Tre": 7658,
      "credit": 7659,
      "ads": 7660,
      "smiled": 7661,
      "Disney": 7662,
      "phr": 7663,
      "orses": 7664,
      "smile": 7665,
      "aska": 7666,
      "motion": 7667,
      "traveled": 7668,
      "Ca": 7669,
      "concerns": 7670,
      "Bern": 7671,
      ",'": 7672,
      "Sa": 7673,
      "originated": 7674,
      "Adam": 7675,
      "Nat": 7676,
      "Commonwealth": 7677,
      "Tennes": 7678,
      "shopping": 7679,
      "zone": 7680,
      "acquired": 7681,
      "pull": 7682,
      "tou": 7683,
      "homework": 7684,
      "Ill": 7685,
      "conservative": 7686,
      "shor": 7687,
      "chain": 7688,
      "values": 7689,
      "critical": 7690,
      "quant": 7691,
      "een": 7692,
      "Records": 7693,
      "ito": 7694,
      "emen": 7695,
      "notable": 7696,
      "denomin": 7697,
      "Lisa": 7698,
      "Arth": 7699,
      "Security": 7700,
      "handed": 7701,
      "organizations": 7702,
      "cou": 7703,
      "rd": 7704,
      "sounds": 7705,
      "cycle": 7706,
      "atmo": 7707,
      "ologist": 7708,
      "fant": 7709,
      "council": 7710,
      "Lincol": 7711,
      "ost": 7712,
      "poses": 7713,
      "employment": 7714,
      "Ale": 7715,
      "Bureau": 7716,
      "Thir": 7717,
      "hoped": 7718,
      "chocolate": 7719,
      "hammad": 7720,
      "populated": 7721,
      "citizen": 7722,
      "iro": 7723,
      "photograph": 7724,
      "assistant": 7725,
      "correct": 7726,
      "Dun": 7727,
      "wid": 7728,
      "Berlin": 7729,
      "Cle": 7730,
      "EC": 7731,
      "leadership": 7732,
      "Tennessee": 7733,
      "copies": 7734,
      "revealed": 7735,
      "Mountains": 7736,
      "forget": 7737,
      "comic": 7738,
      "southwest": 7739,
      "Daily": 7740,
      "intend": 7741,
      "Greater": 7742,
      "flying": 7743,
      "inated": 7744,
      "Stone": 7745,
      "Abd": 7746,
      "torch": 7747,
      "gal": 7748,
      "Polish": 7749,
      "lyn": 7750,
      "comed": 7751,
      "chairman": 7752,
      "IT": 7753,
      "Kenn": 7754,
      "fied": 7755,
      "1969": 7756,
      "Medical": 7757,
      "Holy": 7758,
      "crisis": 7759,
      "injured": 7760,
      "Ages": 7761,
      "preced": 7762,
      "chip": 7763,
      "igins": 7764,
      "sugar": 7765,
      "kespe": 7766,
      "ww": 7767,
      "slowly": 7768,
      "Ut": 7769,
      "preser": 7770,
      "ionally": 7771,
      "aming": 7772,
      "styles": 7773,
      "suspect": 7774,
      "Duke": 7775,
      "burgh": 7776,
      "funny": 7777,
      "describes": 7778,
      "(),": 7779,
      "sion": 7780,
      "solar": 7781,
      "Cambridge": 7782,
      "58": 7783,
      "illness": 7784,
      "negative": 7785,
      "enses": 7786,
      "sides": 7787,
      "lift": 7788,
      "filed": 7789,
      "singles": 7790,
      "Gulf": 7791,
      "setting": 7792,
      "offices": 7793,
      "apartment": 7794,
      "genre": 7795,
      "speakers": 7796,
      "advert": 7797,
      "dram": 7798,
      "crowd": 7799,
      "Ever": 7800,
      "Shakespe": 7801,
      "dish": 7802,
      "increasingly": 7803,
      "Turkish": 7804,
      "FL": 7805,
      "Murray": 7806,
      "andon": 7807,
      "Enter": 7808,
      "Van": 7809,
      "Wang": 7810,
      "populations": 7811,
      "rural": 7812,
      "wine": 7813,
      "educational": 7814,
      "architect": 7815,
      "cticut": 7816,
      "classified": 7817,
      "bug": 7818,
      "affect": 7819,
      "Lincoln": 7820,
      "Up": 7821,
      "lets": 7822,
      "Americas": 7823,
      "Children": 7824,
      "Connecticut": 7825,
      "widespread": 7826,
      "shut": 7827,
      "puppy": 7828,
      "Eric": 7829,
      "cha": 7830,
      "akh": 7831,
      "association": 7832,
      "Tok": 7833,
      "weet": 7834,
      "arian": 7835,
      "ropol": 7836,
      "views": 7837,
      "intelligence": 7838,
      "keys": 7839,
      "legend": 7840,
      "Universal": 7841,
      "scored": 7842,
      "Uk": 7843,
      "roit": 7844,
      "Father": 7845,
      "tend": 7846,
      "afford": 7847,
      "akers": 7848,
      "ec": 7849,
      "Hospital": 7850,
      "edge": 7851,
      "dim": 7852,
      "Wo": 7853,
      "desk": 7854,
      "easily": 7855,
      "stairs": 7856,
      "dominated": 7857,
      "ighter": 7858,
      "semi": 7859,
      "yourself": 7860,
      "NBC": 7861,
      "Vi": 7862,
      "proved": 7863,
      "treated": 7864,
      "fiction": 7865,
      "Jessica": 7866,
      "Treaty": 7867,
      "internal": 7868,
      "denied": 7869,
      "racial": 7870,
      "laug": 7871,
      "collect": 7872,
      "Hawai": 7873,
      "Lewis": 7874,
      "laughed": 7875,
      "Wat": 7876,
      "emy": 7877,
      "Peninsula": 7878,
      "elder": 7879,
      "protection": 7880,
      "consisting": 7881,
      "Education": 7882,
      "sale": 7883,
      "crying": 7884,
      "gall": 7885,
      "starts": 7886,
      "height": 7887,
      "threw": 7888,
      "ram": 7889,
      "lingu": 7890,
      "alia": 7891,
      "Syd": 7892,
      "osis": 7893,
      "zed": 7894,
      "pression": 7895,
      "evolved": 7896,
      "exactly": 7897,
      "scheduled": 7898,
      "typical": 7899,
      "respectively": 7900,
      "publishing": 7901,
      "Eston": 7902,
      "goods": 7903,
      "testing": 7904,
      "familiar": 7905,
      "Cur": 7906,
      "medieval": 7907,
      "scared": 7908,
      "See": 7909,
      "mally": 7910,
      "Lar": 7911,
      "extr": 7912,
      "reduce": 7913,
      "Hear": 7914,
      "Khan": 7915,
      "ailed": 7916,
      "Kate": 7917,
      "camera": 7918,
      "maximum": 7919,
      "analysis": 7920,
      "Fox": 7921,
      "vast": 7922,
      "resear": 7923,
      "opposed": 7924,
      "98": 7925,
      "Oxford": 7926,
      "ote": 7927,
      "employed": 7928,
      "Native": 7929,
      "roots": 7930,
      "Among": 7931,
      "Way": 7932,
      "Detroit": 7933,
      "Library": 7934,
      "Corporation": 7935,
      "leads": 7936,
      "Liver": 7937,
      "reduced": 7938,
      "Mong": 7939,
      "Pet": 7940,
      "waste": 7941,
      "Muslims": 7942,
      "grav": 7943,
      "carto": 7944,
      "1967": 7945,
      "gradually": 7946,
      "Warner": 7947,
      "Sony": 7948,
      "1982": 7949,
      "brevi": 7950,
      "Territ": 7951,
      "failure": 7952,
      "ulation": 7953,
      "stal": 7954,
      "ella": 7955,
      "Airport": 7956,
      "oted": 7957,
      "dipl": 7958,
      "ologies": 7959,
      "Pope": 7960,
      "Confed": 7961,
      "publisher": 7962,
      "sons": 7963,
      "adding": 7964,
      "Caribbean": 7965,
      "ipel": 7966,
      "crimes": 7967,
      "anny": 7968,
      "committed": 7969,
      "Arthur": 7970,
      "Norway": 7971,
      "novels": 7972,
      "bowl": 7973,
      "uter": 7974,
      "56": 7975,
      "bicycle": 7976,
      "overseas": 7977,
      "Tar": 7978,
      "Top": 7979,
      "partners": 7980,
      "chosen": 7981,
      "calcul": 7982,
      "signs": 7983,
      "fishing": 7984,
      "copper": 7985,
      "Palace": 7986,
      "ware": 7987,
      "shirt": 7988,
      "Kennedy": 7989,
      "suffering": 7990,
      "Shakespeare": 7991,
      "abbrevi": 7992,
      "meal": 7993,
      "Look": 7994,
      "philosopher": 7995,
      "cable": 7996,
      "inspir": 7997,
      "Prosecut": 7998,
      "measures": 7999,
      "Bus": 8000,
      "heng": 8001,
      "loves": 8002,
      "responsibility": 8003,
      "origins": 8004,
      "adults": 8005,
      "showing": 8006,
      "Wilson": 8007,
      "Gadha": 8008,
      "Mas": 8009,
      "evin": 8010,
      "tical": 8011,
      "patients": 8012,
      "consu": 8013,
      "foundation": 8014,
      "scientist": 8015,
      "Nasser": 8016,
      "survey": 8017,
      "RA": 8018,
      "thin": 8019,
      "Blue": 8020,
      "pursu": 8021,
      "IA": 8022,
      "becomes": 8023,
      "obs": 8024,
      "classic": 8025,
      "phenomen": 8026,
      "800": 8027,
      "Christians": 8028,
      "Major": 8029,
      "Hindu": 8030,
      "ique": 8031,
      "icon": 8032,
      "hism": 8033,
      "Hispan": 8034,
      "weapons": 8035,
      "Rel": 8036,
      "plate": 8037,
      "minority": 8038,
      "lessons": 8039,
      "1984": 8040,
      "Out": 8041,
      "Vol": 8042,
      "Fore": 8043,
      "closer": 8044,
      "parent": 8045,
      "struggle": 8046,
      "scr": 8047,
      "agno": 8048,
      "sust": 8049,
      "160": 8050,
      "figures": 8051,
      "Navy": 8052,
      "expansion": 8053,
      "Miller": 8054,
      "boss": 8055,
      "Serb": 8056,
      "colonies": 8057,
      "Buen": 8058,
      "hate": 8059,
      "situated": 8060,
      "Jimmy": 8061,
      "satellite": 8062,
      "thi": 8063,
      "1964": 8064,
      "etime": 8065,
      "raise": 8066,
      "infect": 8067,
      "Jun": 8068,
      "neck": 8069,
      "sight": 8070,
      "orph": 8071,
      "ansas": 8072,
      "equival": 8073,
      "Premier": 8074,
      "locked": 8075,
      "Mongol": 8076,
      "Gadhafi": 8077,
      "horses": 8078,
      "substant": 8079,
      "Southeast": 8080,
      "environmental": 8081,
      "giant": 8082,
      "Lady": 8083,
      "250": 8084,
      "dens": 8085,
      "Chopin": 8086,
      "MP": 8087,
      "cue": 8088,
      "faster": 8089,
      "render": 8090,
      "tun": 8091,
      "zona": 8092,
      "rebel": 8093,
      "ception": 8094,
      "Brun": 8095,
      "Profess": 8096,
      "cin": 8097,
      "celebrated": 8098,
      "thodox": 8099,
      "entertainment": 8100,
      "1950s": 8101,
      "Bre": 8102,
      "eda": 8103,
      "178": 8104,
      "monarchy": 8105,
      "frame": 8106,
      "liance": 8107,
      "Egyptian": 8108,
      "linked": 8109,
      "Ni": 8110,
      "oy": 8111,
      "rates": 8112,
      "assault": 8113,
      "supply": 8114,
      "attribut": 8115,
      "accounts": 8116,
      "stick": 8117,
      "1970": 8118,
      "gate": 8119,
      "biological": 8120,
      "reaction": 8121,
      "audio": 8122,
      "Test": 8123,
      "sq": 8124,
      "clearly": 8125,
      "willing": 8126,
      "TA": 8127,
      "harm": 8128,
      "iland": 8129,
      "historically": 8130,
      "intern": 8131,
      "tribut": 8132,
      "agent": 8133,
      "stands": 8134,
      "dominant": 8135,
      "improved": 8136,
      "listen": 8137,
      "Feder": 8138,
      "izza": 8139,
      "plus": 8140,
      "colour": 8141,
      "continental": 8142,
      "iverse": 8143,
      "Sydney": 8144,
      "swimming": 8145,
      "possibly": 8146,
      "tie": 8147,
      "aza": 8148,
      "Shar": 8149,
      "prosecutors": 8150,
      "etry": 8151,
      "dependent": 8152,
      "capacity": 8153,
      "awards": 8154,
      "cooking": 8155,
      "decor": 8156,
      "projects": 8157,
      "certainly": 8158,
      "subsequently": 8159,
      "isol": 8160,
      "Div": 8161,
      "glad": 8162,
      "issip": 8163,
      "12th": 8164,
      "messages": 8165,
      "Liverpool": 8166,
      "Gall": 8167,
      "coins": 8168,
      "1960": 8169,
      "fict": 8170,
      "reaching": 8171,
      "contributed": 8172,
      "governments": 8173,
      "\";": 8174,
      "1963": 8175,
      "promised": 8176,
      "networks": 8177,
      "file": 8178,
      "len": 8179,
      "client": 8180,
      "hill": 8181,
      "ammy": 8182,
      "cried": 8183,
      "Diego": 8184,
      "ille": 8185,
      "unable": 8186,
      "Stan": 8187,
      "advice": 8188,
      "examples": 8189,
      "Mississip": 8190,
      "ales": 8191,
      "twelve": 8192,
      "iques": 8193,
      "versions": 8194,
      "sels": 8195,
      "Ly": 8196,
      "supposed": 8197,
      "wedding": 8198,
      "Domin": 8199,
      "ER": 8200,
      "rev": 8201,
      "trait": 8202,
      "Susan": 8203,
      "Stud": 8204,
      "Read": 8205,
      "Clinton": 8206,
      "electron": 8207,
      "rick": 8208,
      "fu": 8209,
      "decline": 8210,
      "cous": 8211,
      "youth": 8212,
      "reflect": 8213,
      "zoo": 8214,
      "liberal": 8215,
      "diet": 8216,
      "traditions": 8217,
      "Sub": 8218,
      "mph": 8219,
      "churches": 8220,
      "factors": 8221,
      "Develop": 8222,
      "tough": 8223,
      "accompl": 8224,
      "1920": 8225,
      "prepar": 8226,
      "grandmother": 8227,
      "GO": 8228,
      "conquest": 8229,
      "sorry": 8230,
      "laid": 8231,
      "alongside": 8232,
      "Arizona": 8233,
      "Czech": 8234,
      "drove": 8235,
      "allegedly": 8236,
      "empts": 8237,
      "Golden": 8238,
      "decre": 8239,
      "actors": 8240,
      "insur": 8241,
      "expressed": 8242,
      "instance": 8243,
      "employees": 8244,
      "iber": 8245,
      "1975": 8246,
      "ET": 8247,
      "tri": 8248,
      "Pict": 8249,
      "push": 8250,
      "absor": 8251,
      "confidence": 8252,
      "Fl": 8253,
      "1968": 8254,
      "Franklin": 8255,
      "umber": 8256,
      "castle": 8257,
      "existing": 8258,
      "Billboard": 8259,
      "shell": 8260,
      "Fel": 8261,
      "seasons": 8262,
      "bottom": 8263,
      "Ah": 8264,
      "functions": 8265,
      "olly": 8266,
      "centers": 8267,
      "pocket": 8268,
      "wick": 8269,
      "abbed": 8270,
      "Mess": 8271,
      "onna": 8272,
      "sely": 8273,
      "steps": 8274,
      "abad": 8275,
      "rivers": 8276,
      "settle": 8277,
      "ISO": 8278,
      "texts": 8279,
      "Nigeria": 8280,
      "none": 8281,
      "stock": 8282,
      "maintained": 8283,
      "fare": 8284,
      "isen": 8285,
      "noticed": 8286,
      "forming": 8287,
      "guy": 8288,
      "Sudan": 8289,
      "Israeli": 8290,
      "1st": 8291,
      "inian": 8292,
      "Inc": 8293,
      "yes": 8294,
      "Only": 8295,
      "diversity": 8296,
      "instein": 8297,
      "drinking": 8298,
      "inea": 8299,
      "transition": 8300,
      "involve": 8301,
      "expert": 8302,
      "prepared": 8303,
      "Prussia": 8304,
      "Liu": 8305,
      "movements": 8306,
      "united": 8307,
      "ideal": 8308,
      "concerned": 8309,
      "doubt": 8310,
      "toy": 8311,
      "phas": 8312,
      "sper": 8313,
      "Protestant": 8314,
      "mod": 8315,
      "umes": 8316,
      "massive": 8317,
      "Squ": 8318,
      "infl": 8319,
      "Kat": 8320,
      "Show": 8321,
      "thew": 8322,
      "mm": 8323,
      "owns": 8324,
      "prize": 8325,
      "subjects": 8326,
      "rhy": 8327,
      "pray": 8328,
      "effective": 8329,
      "Lab": 8330,
      "spect": 8331,
      "Origin": 8332,
      "hunting": 8333,
      "Bow": 8334,
      "orm": 8335,
      "awa": 8336,
      "haz": 8337,
      "experiences": 8338,
      "athan": 8339,
      "declined": 8340,
      "stro": 8341,
      "ogle": 8342,
      "Apol": 8343,
      "Pas": 8344,
      "tears": 8345,
      "hole": 8346,
      "readers": 8347,
      "addy": 8348,
      "Offic": 8349,
      "surrounded": 8350,
      "appeal": 8351,
      "appropri": 8352,
      "15th": 8353,
      "subsequent": 8354,
      "ovic": 8355,
      "earning": 8356,
      "Arts": 8357,
      "Norman": 8358,
      "tons": 8359,
      "bail": 8360,
      "inher": 8361,
      "hungry": 8362,
      "deser": 8363,
      "rooms": 8364,
      "Allen": 8365,
      "oxygen": 8366,
      "mitted": 8367,
      "Als": 8368,
      "Libya": 8369,
      "Dep": 8370,
      "abol": 8371,
      "candidates": 8372,
      "conscious": 8373,
      "solute": 8374,
      "Justice": 8375,
      "Slo": 8376,
      "actual": 8377,
      "Jay": 8378,
      "ava": 8379,
      "Rober": 8380,
      "shouted": 8381,
      "adapt": 8382,
      "affected": 8383,
      "prop": 8384,
      "Mount": 8385,
      "bone": 8386,
      "Ancient": 8387,
      "pu": 8388,
      "alan": 8389,
      "balance": 8390,
      "abilities": 8391,
      "nerv": 8392,
      "drawing": 8393,
      "muscle": 8394,
      "opposite": 8395,
      "bread": 8396,
      "painted": 8397,
      "printed": 8398,
      "comfortable": 8399,
      "mainland": 8400,
      "smallest": 8401,
      "habit": 8402,
      "foods": 8403,
      "referring": 8404,
      "empty": 8405,
      "Je": 8406,
      "entially": 8407,
      "Argentina": 8408,
      "encing": 8409,
      "fici": 8410,
      "bond": 8411,
      "Report": 8412,
      "mix": 8413,
      "atherine": 8414,
      "grandfather": 8415,
      "kilome": 8416,
      "fictional": 8417,
      "convers": 8418,
      "satis": 8419,
      "occurs": 8420,
      "Gard": 8421,
      "GDP": 8422,
      "Rena": 8423,
      "earthquake": 8424,
      "Ven": 8425,
      "aret": 8426,
      "geo": 8427,
      "1974": 8428,
      "Bible": 8429,
      "ios": 8430,
      "finding": 8431,
      "colors": 8432,
      "BCE": 8433,
      "traditionally": 8434,
      "understo": 8435,
      "butter": 8436,
      "Mean": 8437,
      "divisions": 8438,
      "GM": 8439,
      "sche": 8440,
      "treaty": 8441,
      "understood": 8442,
      "tap": 8443,
      "garian": 8444,
      "Labor": 8445,
      "Board": 8446,
      "Province": 8447,
      "neut": 8448,
      "observ": 8449,
      "nickname": 8450,
      "eases": 8451,
      "astronom": 8452,
      "Lyn": 8453,
      "dialect": 8454,
      "ultimately": 8455,
      "ifer": 8456,
      "drama": 8457,
      "sisters": 8458,
      "1977": 8459,
      "diplom": 8460,
      "affairs": 8461,
      "diseases": 8462,
      "smell": 8463,
      "wave": 8464,
      "volcan": 8465,
      "etc": 8466,
      "10th": 8467,
      "electronic": 8468,
      "encouraged": 8469,
      "specifically": 8470,
      "120": 8471,
      "Gra": 8472,
      "user": 8473,
      "pover": 8474,
      "Marg": 8475,
      "Mississippi": 8476,
      "lap": 8477,
      "characteristics": 8478,
      "sleeping": 8479,
      "aced": 8480,
      "strateg": 8481,
      "attempts": 8482,
      "secretary": 8483,
      "1979": 8484,
      "ode": 8485,
      "adap": 8486,
      "Dev": 8487,
      "iment": 8488,
      "liqu": 8489,
      "soc": 8490,
      "medium": 8491,
      "Stock": 8492,
      "orbit": 8493,
      "predomin": 8494,
      "Jason": 8495,
      "interests": 8496,
      "sweet": 8497,
      "trading": 8498,
      "pione": 8499,
      "Tay": 8500,
      "iti": 8501,
      "noise": 8502,
      "accur": 8503,
      "Channel": 8504,
      "cards": 8505,
      "commission": 8506,
      "essential": 8507,
      "Attorney": 8508,
      "Born": 8509,
      "Jac": 8510,
      "tha": 8511,
      "doors": 8512,
      "Dre": 8513,
      "map": 8514,
      "rejected": 8515,
      "useful": 8516,
      "mayor": 8517,
      "requires": 8518,
      "homeless": 8519,
      "Iv": 8520,
      "1986": 8521,
      "fundament": 8522,
      "Wim": 8523,
      "Antar": 8524,
      "heavily": 8525,
      "silver": 8526,
      "5th": 8527,
      "drawn": 8528,
      "strongly": 8529,
      "gene": 8530,
      "escape": 8531,
      "Pot": 8532,
      "abandon": 8533,
      "neur": 8534,
      "Armenian": 8535,
      "olas": 8536,
      "1985": 8537,
      "Iranian": 8538,
      "69": 8539,
      "Oliver": 8540,
      "Assembly": 8541,
      "berry": 8542,
      "containing": 8543,
      "Buenos": 8544,
      "intel": 8545,
      "publication": 8546,
      "shock": 8547,
      "machines": 8548,
      "symptoms": 8549,
      "72": 8550,
      "fal": 8551,
      "Flo": 8552,
      "cert": 8553,
      "distribution": 8554,
      "cash": 8555,
      "Suddenly": 8556,
      "onaut": 8557,
      "criticism": 8558,
      "worse": 8559,
      "putting": 8560,
      "critics": 8561,
      "ko": 8562,
      "ulated": 8563,
      "virt": 8564,
      "athletes": 8565,
      "ilton": 8566,
      "assass": 8567,
      "flew": 8568,
      "kilomet": 8569,
      "wet": 8570,
      "Unlike": 8571,
      "gery": 8572,
      "Order": 8573,
      "Gates": 8574,
      "electrical": 8575,
      "teenagers": 8576,
      "Princess": 8577,
      "Bond": 8578,
      "adjust": 8579,
      "traits": 8580,
      "solid": 8581,
      "Yang": 8582,
      "agues": 8583,
      "thank": 8584,
      "Area": 8585,
      "periods": 8586,
      "ouri": 8587,
      "notably": 8588,
      "Republicans": 8589,
      "Medic": 8590,
      "affiliate": 8591,
      "wars": 8592,
      "contained": 8593,
      "pton": 8594,
      "conducted": 8595,
      "Alsace": 8596,
      "imperial": 8597,
      "Cook": 8598,
      "hosted": 8599,
      "tied": 8600,
      "usal": 8601,
      "feels": 8602,
      "Sweden": 8603,
      "divor": 8604,
      "Muhammad": 8605,
      "AL": 8606,
      "Ts": 8607,
      "violent": 8608,
      "inch": 8609,
      "aria": 8610,
      "slip": 8611,
      "poetry": 8612,
      "gym": 8613,
      "narrow": 8614,
      "Abu": 8615,
      "asure": 8616,
      "Road": 8617,
      "Apollo": 8618,
      "Blo": 8619,
      "coat": 8620,
      "beer": 8621,
      "Hung": 8622,
      "meters": 8623,
      "Alexand": 8624,
      "Bun": 8625,
      "impossible": 8626,
      "selection": 8627,
      "km2": 8628,
      "walls": 8629,
      "Nan": 8630,
      "chest": 8631,
      "Seattle": 8632,
      "techniques": 8633,
      "customers": 8634,
      "gers": 8635,
      "acle": 8636,
      "subur": 8637,
      "eman": 8638,
      "heads": 8639,
      "worker": 8640,
      "slightly": 8641,
      "Slav": 8642,
      "plead": 8643,
      "Cross": 8644,
      "slave": 8645,
      "jack": 8646,
      "platform": 8647,
      "aran": 8648,
      "businesses": 8649,
      "survived": 8650,
      "newly": 8651,
      "finger": 8652,
      "mont": 8653,
      "temperatures": 8654,
      "soccer": 8655,
      "700": 8656,
      "Five": 8657,
      "Jam": 8658,
      "acknow": 8659,
      "Hann": 8660,
      "agement": 8661,
      "carri": 8662,
      "1981": 8663,
      "practical": 8664,
      "theatre": 8665,
      "adesh": 8666,
      "strip": 8667,
      "alternative": 8668,
      "resistance": 8669,
      "replied": 8670,
      "haven": 8671,
      "slam": 8672,
      "races": 8673,
      "comprises": 8674,
      "equivalent": 8675,
      "Has": 8676,
      "reform": 8677,
      "rab": 8678,
      "stable": 8679,
      "bors": 8680,
      "guess": 8681,
      "Michel": 8682,
      "constructed": 8683,
      "Democrats": 8684,
      "lier": 8685,
      "Lead": 8686,
      "happily": 8687,
      "1980": 8688,
      "Guinea": 8689,
      "gam": 8690,
      "wore": 8691,
      "cession": 8692,
      "nervous": 8693,
      "Kevin": 8694,
      "ti": 8695,
      "1948": 8696,
      "neighbour": 8697,
      "landing": 8698,
      "11th": 8699,
      "Nazi": 8700,
      "channel": 8701,
      "Delhi": 8702,
      "images": 8703,
      "Pier": 8704,
      "greg": 8705,
      "governed": 8706,
      "Indust": 8707,
      "intellect": 8708,
      "79": 8709,
      "relationships": 8710,
      "pounds": 8711,
      "Brother": 8712,
      "Matthew": 8713,
      "Get": 8714,
      "franch": 8715,
      "inois": 8716,
      "ji": 8717,
      "assu": 8718,
      "attacked": 8719,
      "Philipp": 8720,
      "lights": 8721,
      "corn": 8722,
      "thanks": 8723,
      "1973": 8724,
      "athered": 8725,
      "replac": 8726,
      "Fire": 8727,
      "wake": 8728,
      "manner": 8729,
      "approved": 8730,
      "bringing": 8731,
      "pit": 8732,
      "suddenly": 8733,
      "punish": 8734,
      "73": 8735,
      "aire": 8736,
      "vised": 8737,
      "oes": 8738,
      "capture": 8739,
      "paintings": 8740,
      "lan": 8741,
      "oven": 8742,
      "terrible": 8743,
      "Persian": 8744,
      "otherwise": 8745,
      "connect": 8746,
      "circu": 8747,
      "Mot": 8748,
      "reput": 8749,
      "2017": 8750,
      "carefully": 8751,
      "Taiwan": 8752,
      "circulation": 8753,
      "corruption": 8754,
      "enforce": 8755,
      "Water": 8756,
      "instruments": 8757,
      "cart": 8758,
      "thal": 8759,
      "usage": 8760,
      "select": 8761,
      "worst": 8762,
      "facilities": 8763,
      "existed": 8764,
      "instrument": 8765,
      "split": 8766,
      "lasted": 8767,
      "turns": 8768,
      "Qa": 8769,
      "advanced": 8770,
      "protein": 8771,
      "weekly": 8772,
      "ibility": 8773,
      "volume": 8774,
      "manufacturing": 8775,
      "supporting": 8776,
      "purchased": 8777,
      "successfully": 8778,
      "straw": 8779,
      "viewed": 8780,
      "Add": 8781,
      "Electr": 8782,
      "oxide": 8783,
      "Jour": 8784,
      "struck": 8785,
      "patent": 8786,
      "Six": 8787,
      "Corn": 8788,
      "Ple": 8789,
      "AA": 8790,
      "OR": 8791,
      "21st": 8792,
      "prepare": 8793,
      "cotton": 8794,
      "issance": 8795,
      "hid": 8796,
      "aly": 8797,
      "enson": 8798,
      "offering": 8799,
      "Carl": 8800,
      "philosoph": 8801,
      "synthes": 8802,
      "courts": 8803,
      "finals": 8804,
      "dedicated": 8805,
      "biology": 8806,
      "Cru": 8807,
      "Illinois": 8808,
      "OK": 8809,
      "normally": 8810,
      "1962": 8811,
      "1972": 8812,
      "Germanic": 8813,
      "charity": 8814,
      "Charlie": 8815,
      "transportation": 8816,
      "seeking": 8817,
      "selected": 8818,
      "cere": 8819,
      "blow": 8820,
      "mathematics": 8821,
      "Google": 8822,
      "Cab": 8823,
      "survive": 8824,
      "Taylor": 8825,
      "background": 8826,
      "54": 8827,
      "termine": 8828,
      "albums": 8829,
      "operate": 8830,
      "lips": 8831,
      "diagno": 8832,
      "pets": 8833,
      "wers": 8834,
      "inches": 8835,
      "raising": 8836,
      "Saudi": 8837,
      "rison": 8838,
      "antine": 8839,
      "aked": 8840,
      "170": 8841,
      "percentage": 8842,
      "rum": 8843,
      "secondary": 8844,
      "shortly": 8845,
      "'.": 8846,
      "Ak": 8847,
      "Sk": 8848,
      "gross": 8849,
      "angel": 8850,
      "colony": 8851,
      "puts": 8852,
      "Championship": 8853,
      "Nadal": 8854,
      "Aires": 8855,
      "mac": 8856,
      "org": 8857,
      "absolute": 8858,
      "itarian": 8859,
      "Bad": 8860,
      "apple": 8861,
      "compete": 8862,
      "Einstein": 8863,
      "pronounced": 8864,
      "components": 8865,
      "coastal": 8866,
      "loud": 8867,
      "Space": 8868,
      "waters": 8869,
      "route": 8870,
      "atmosphere": 8871,
      "jail": 8872,
      "recovery": 8873,
      "dreams": 8874,
      "plastic": 8875,
      "poet": 8876,
      "successor": 8877,
      "Rights": 8878,
      "tea": 8879,
      "custody": 8880,
      "tail": 8881,
      "extent": 8882,
      "Along": 8883,
      "Alaska": 8884,
      "1976": 8885,
      "infection": 8886,
      "yr": 8887,
      "istical": 8888,
      "database": 8889,
      "aspects": 8890,
      "unknown": 8891,
      "announce": 8892,
      "Qaeda": 8893,
      "Fle": 8894,
      "consequ": 8895,
      "igation": 8896,
      "Christop": 8897,
      "bark": 8898,
      "Spring": 8899,
      "Tun": 8900,
      "woods": 8901,
      "razy": 8902,
      "experiment": 8903,
      "isted": 8904,
      "landed": 8905,
      "publicly": 8906,
      "Ev": 8907,
      "Jobs": 8908,
      "Sah": 8909,
      "illi": 8910,
      "Any": 8911,
      "retire": 8912,
      "Constant": 8913,
      "realize": 8914,
      "Bi": 8915,
      "pub": 8916,
      "determine": 8917,
      "cluded": 8918,
      "Standard": 8919,
      "ipelago": 8920,
      "Byz": 8921,
      "fixed": 8922,
      "entirely": 8923,
      "atever": 8924,
      "kingdoms": 8925,
      "Avenue": 8926,
      "Ming": 8927,
      "icial": 8928,
      "ulate": 8929,
      "friendship": 8930,
      "composition": 8931,
      "suggests": 8932,
      "aser": 8933,
      "avia": 8934,
      "soil": 8935,
      "1971": 8936,
      "Saxon": 8937,
      "keeper": 8938,
      "ardo": 8939,
      "Pun": 8940,
      "encompass": 8941,
      "passing": 8942,
      "Missouri": 8943,
      "dating": 8944,
      "worry": 8945,
      "funeral": 8946,
      "roads": 8947,
      "Alab": 8948,
      "bands": 8949,
      "13th": 8950,
      "luck": 8951,
      "elim": 8952,
      "Christopher": 8953,
      "brow": 8954,
      "antly": 8955,
      "antib": 8956,
      "Orthodox": 8957,
      "Talib": 8958,
      "Wel": 8959,
      "Malays": 8960,
      "AR": 8961,
      "thetic": 8962,
      "density": 8963,
      "sam": 8964,
      "Kir": 8965,
      "Mes": 8966,
      "ela": 8967,
      "portr": 8968,
      "Congo": 8969,
      "teenager": 8970,
      "Hell": 8971,
      "Shel": 8972,
      "glasses": 8973,
      "cler": 8974,
      "Alf": 8975,
      "Eisen": 8976,
      "proto": 8977,
      "Hamilton": 8978,
      "fame": 8979,
      "substance": 8980,
      "Walter": 8981,
      "jump": 8982,
      "Kentucky": 8983,
      "Ms": 8984,
      "mile": 8985,
      "resto": 8986,
      "pled": 8987,
      "plot": 8988,
      "characterized": 8989,
      "Edis": 8990,
      "perior": 8991,
      "1983": 8992,
      "Rick": 8993,
      "emotional": 8994,
      "represents": 8995,
      "collected": 8996,
      "Tiger": 8997,
      "1940": 8998,
      "53": 8999,
      "179": 9000,
      "hydr": 9001,
      "eighth": 9002,
      "millenn": 9003,
      "lung": 9004,
      "shore": 9005,
      "regime": 9006,
      "Ram": 9007,
      "pure": 9008,
      "orange": 9009,
      "legally": 9010,
      "istration": 9011,
      "Freder": 9012,
      "relay": 9013,
      "doctr": 9014,
      "conduct": 9015,
      "crew": 9016,
      "neither": 9017,
      "Marshall": 9018,
      "temporary": 9019,
      "Friedrich": 9020,
      "suicide": 9021,
      "counted": 9022,
      "Judge": 9023,
      "tribes": 9024,
      "Wimbled": 9025,
      "Women": 9026,
      "onso": 9027,
      "complic": 9028,
      "conquered": 9029,
      "Ten": 9030,
      "confident": 9031,
      "crash": 9032,
      "1930s": 9033,
      "gathered": 9034,
      "minim": 9035,
      "Jenn": 9036,
      "bigger": 9037,
      "Development": 9038,
      "modif": 9039,
      "concert": 9040,
      "proceed": 9041,
      "Josh": 9042,
      "Charlot": 9043,
      "auth": 9044,
      "Beck": 9045,
      "kilometers": 9046,
      "tox": 9047,
      "follows": 9048,
      "ancest": 9049,
      "tin": 9050,
      "secution": 9051,
      "Kelly": 9052,
      "mine": 9053,
      "paying": 9054,
      "purposes": 9055,
      "heroes": 9056,
      "pilot": 9057,
      "rug": 9058,
      "ensure": 9059,
      "autonomous": 9060,
      "Back": 9061,
      "rescue": 9062,
      "Anton": 9063,
      "captain": 9064,
      "Ku": 9065,
      "juris": 9066,
      "urning": 9067,
      "display": 9068,
      "iPod": 9069,
      "Pu": 9070,
      "trop": 9071,
      "agricultural": 9072,
      "Foreign": 9073,
      "cats": 9074,
      "uncle": 9075,
      "matters": 9076,
      "opinion": 9077,
      "nutrit": 9078,
      "regarding": 9079,
      "hub": 9080,
      "salt": 9081,
      "succeeded": 9082,
      "ora": 9083,
      "urer": 9084,
      "ordin": 9085,
      "retail": 9086,
      "Maybe": 9087,
      "gment": 9088,
      "pink": 9089,
      "retain": 9090,
      "genes": 9091,
      "Pakistani": 9092,
      "sector": 9093,
      "Maryland": 9094,
      "Game": 9095,
      "structures": 9096,
      "Fur": 9097,
      "revenue": 9098,
      "cape": 9099,
      "decisions": 9100,
      "engineer": 9101,
      "Kerry": 9102,
      "eva": 9103,
      "MS": 9104,
      "whereas": 9105,
      "FIFA": 9106,
      "pm": 9107,
      "thy": 9108,
      "Arm": 9109,
      "representative": 9110,
      "Abr": 9111,
      "rice": 9112,
      "circumstances": 9113,
      "Mother": 9114,
      "capable": 9115,
      "leep": 9116,
      "literally": 9117,
      "tip": 9118,
      "residence": 9119,
      "discovery": 9120,
      "Alabama": 9121,
      "saving": 9122,
      "Coll": 9123,
      "boundaries": 9124,
      "humor": 9125,
      "intent": 9126,
      "Linda": 9127,
      "Cop": 9128,
      "waves": 9129,
      "magic": 9130,
      "calend": 9131,
      "accus": 9132,
      "threatened": 9133,
      "intendo": 9134,
      "Nintendo": 9135,
      "oured": 9136,
      "technical": 9137,
      "Wimbledon": 9138,
      "Food": 9139,
      "performing": 9140,
      "currency": 9141,
      "SE": 9142,
      "riding": 9143,
      "racing": 9144,
      "agencies": 9145,
      "dear": 9146,
      "lavery": 9147,
      "dialects": 9148,
      "taste": 9149,
      "Snow": 9150,
      "waited": 9151,
      "benefit": 9152,
      "sciences": 9153,
      "Edison": 9154,
      "pin": 9155,
      "afi": 9156,
      "Indonesia": 9157,
      "blind": 9158,
      "iversary": 9159,
      "causing": 9160,
      "esterday": 9161,
      "downtown": 9162,
      "traveling": 9163,
      "turning": 9164,
      "democracy": 9165,
      "constitu": 9166,
      "eston": 9167,
      "coin": 9168,
      "somewhat": 9169,
      "Festival": 9170,
      "fence": 9171,
      "Taliban": 9172,
      "ais": 9173,
      "kne": 9174,
      "barr": 9175,
      "Wik": 9176,
      "morrow": 9177,
      "technologies": 9178,
      "experts": 9179,
      "blog": 9180,
      "neighbors": 9181,
      "Buddhism": 9182,
      "rapidly": 9183,
      "Sara": 9184,
      "Madonna": 9185,
      "tweet": 9186,
      "secre": 9187,
      "Helen": 9188,
      "ache": 9189,
      "opol": 9190,
      "maybe": 9191,
      "Denmark": 9192,
      "alk": 9193,
      "insects": 9194,
      "kilometres": 9195,
      "renamed": 9196,
      "producing": 9197,
      "Captain": 9198,
      "conspir": 9199,
      "borrow": 9200,
      "restaurants": 9201,
      "pleaded": 9202,
      "ee": 9203,
      "shad": 9204,
      "Thus": 9205,
      "patient": 9206,
      "Between": 9207,
      "alpha": 9208,
      "therap": 9209,
      "decide": 9210,
      "1965": 9211,
      "Bes": 9212,
      "fing": 9213,
      "xture": 9214,
      "shaped": 9215,
      "effectively": 9216,
      "Hungary": 9217,
      "Romans": 9218,
      "77": 9219,
      "NBA": 9220,
      "Tha": 9221,
      "idency": 9222,
      "aints": 9223,
      "%.": 9224,
      "finds": 9225,
      "tiny": 9226,
      "irts": 9227,
      "ranging": 9228,
      "ension": 9229,
      "Wu": 9230,
      "mouse": 9231,
      "posted": 9232,
      "Bos": 9233,
      "crop": 9234,
      "utions": 9235,
      "ression": 9236,
      "votes": 9237,
      "exception": 9238,
      "icing": 9239,
      "1958": 9240,
      "hosts": 9241,
      "andez": 9242,
      "cav": 9243,
      "eving": 9244,
      "itionally": 9245,
      "scen": 9246,
      "Special": 9247,
      "Metropolitan": 9248,
      "XX": 9249,
      "chr": 9250,
      "contributions": 9251,
      "Bra": 9252,
      "principle": 9253,
      "uated": 9254,
      "immune": 9255,
      "Simon": 9256,
      "Never": 9257,
      "ema": 9258,
      "passion": 9259,
      "CEO": 9260,
      "Entertainment": 9261,
      "abuse": 9262,
      "communicate": 9263,
      "iga": 9264,
      "Conserv": 9265,
      "falling": 9266,
      "63": 9267,
      "Leg": 9268,
      "counties": 9269,
      "Twit": 9270,
      "Inde": 9271,
      "aham": 9272,
      "Others": 9273,
      "acter": 9274,
      "compre": 9275,
      "ras": 9276,
      "trol": 9277,
      "hoping": 9278,
      "definite": 9279,
      "profession": 9280,
      "Arabia": 9281,
      "uge": 9282,
      "answers": 9283,
      "industries": 9284,
      "pages": 9285,
      "strate": 9286,
      "comprehen": 9287,
      "Wi": 9288,
      "Sky": 9289,
      "chant": 9290,
      "feelings": 9291,
      "Kn": 9292,
      "Night": 9293,
      "Square": 9294,
      "guard": 9295,
      "executed": 9296,
      "occupation": 9297,
      "Federer": 9298,
      "eland": 9299,
      "missions": 9300,
      "Louisiana": 9301,
      "Annie": 9302,
      "brew": 9303,
      "Until": 9304,
      "tense": 9305,
      "Former": 9306,
      "inth": 9307,
      "anx": 9308,
      "destru": 9309,
      "protected": 9310,
      "cage": 9311,
      "theme": 9312,
      "theless": 9313,
      "tomorrow": 9314,
      "prompt": 9315,
      "returning": 9316,
      "Turn": 9317,
      "inaug": 9318,
      "redi": 9319,
      "iven": 9320,
      "emergency": 9321,
      "consecut": 9322,
      "resign": 9323,
      "compound": 9324,
      "Darwin": 9325,
      "hann": 9326,
      "1978": 9327,
      "Wis": 9328,
      "markets": 9329,
      "tools": 9330,
      "Technology": 9331,
      "toys": 9332,
      "agu": 9333,
      "excell": 9334,
      "Color": 9335,
      "limits": 9336,
      "Fair": 9337,
      "myster": 9338,
      "expression": 9339,
      "Rev": 9340,
      "Il": 9341,
      "ingredi": 9342,
      "privile": 9343,
      "principles": 9344,
      "Gadd": 9345,
      "surgery": 9346,
      "representing": 9347,
      "inventor": 9348,
      "bare": 9349,
      "fold": 9350,
      "alum": 9351,
      "itan": 9352,
      "51": 9353,
      "onian": 9354,
      "protest": 9355,
      "pointed": 9356,
      "involving": 9357,
      "Chel": 9358,
      "theories": 9359,
      "amoun": 9360,
      "universal": 9361,
      "distributed": 9362,
      "forgot": 9363,
      "mere": 9364,
      "marine": 9365,
      "1987": 9366,
      "banks": 9367,
      "benefits": 9368,
      "Tube": 9369,
      "Forces": 9370,
      "ABC": 9371,
      "1949": 9372,
      "Nash": 9373,
      "Yan": 9374,
      "pill": 9375,
      "anniversary": 9376,
      "rupt": 9377,
      "teens": 9378,
      "ME": 9379,
      "commander": 9380,
      "bourg": 9381,
      "Somali": 9382,
      "spiritual": 9383,
      "Lorraine": 9384,
      "proced": 9385,
      "classification": 9386,
      "elect": 9387,
      "aron": 9388,
      "storage": 9389,
      "idays": 9390,
      "Matt": 9391,
      "Work": 9392,
      "combat": 9393,
      "cents": 9394,
      "attracted": 9395,
      "slavery": 9396,
      "partner": 9397,
      "household": 9398,
      "graphic": 9399,
      "rarely": 9400,
      "abroad": 9401,
      "universe": 9402,
      "Spiel": 9403,
      "charts": 9404,
      "ili": 9405,
      "Grace": 9406,
      "Spielberg": 9407,
      "',": 9408,
      "62": 9409,
      "disappeared": 9410,
      "Toronto": 9411,
      "Hern": 9412,
      "Nepal": 9413,
      "Radio": 9414,
      "igno": 9415,
      "favour": 9416,
      "sharing": 9417,
      "vant": 9418,
      "stadium": 9419,
      "1966": 9420,
      "Doctor": 9421,
      "immediate": 9422,
      "transferred": 9423,
      "Graham": 9424,
      "Jama": 9425,
      "Kaz": 9426,
      "lamp": 9427,
      "enez": 9428,
      "prosecutor": 9429,
      "committee": 9430,
      "Tol": 9431,
      "renew": 9432,
      "classmates": 9433,
      "extin": 9434,
      "Lan": 9435,
      "persons": 9436,
      "Bapt": 9437,
      "graduated": 9438,
      "Cuba": 9439,
      "Beng": 9440,
      "Py": 9441,
      "TC": 9442,
      "ativity": 9443,
      "Moore": 9444,
      "Clark": 9445,
      "properties": 9446,
      "beaten": 9447,
      "translated": 9448,
      "pole": 9449,
      "inals": 9450,
      "Beatles": 9451,
      "Sel": 9452,
      "pizza": 9453,
      "Command": 9454,
      "Bridge": 9455,
      "tissue": 9456,
      "repair": 9457,
      "storm": 9458,
      "Director": 9459,
      "zhou": 9460,
      "ros": 9461,
      "ranges": 9462,
      "Greeks": 9463,
      "neutral": 9464,
      "inner": 9465,
      "drum": 9466,
      "rocks": 9467,
      "hydrogen": 9468,
      "lowest": 9469,
      "voy": 9470,
      "roof": 9471,
      "societ": 9472,
      "Polit": 9473,
      "component": 9474,
      "tos": 9475,
      "rolled": 9476,
      "Organization": 9477,
      "convent": 9478,
      "abled": 9479,
      "gentle": 9480,
      "appre": 9481,
      "Chuck": 9482,
      "identify": 9483,
      "Song": 9484,
      "uration": 9485,
      "1956": 9486,
      "lifetime": 9487,
      "nom": 9488,
      "brave": 9489,
      "obvious": 9490,
      "ias": 9491,
      "upset": 9492,
      "dynam": 9493,
      "Renaissance": 9494,
      "stim": 9495,
      "1918": 9496,
      "Wars": 9497,
      "receiving": 9498,
      "performances": 9499,
      "processes": 9500,
      "Chen": 9501,
      "produces": 9502,
      "Imperial": 9503,
      "happens": 9504,
      "Margaret": 9505,
      "anywhere": 9506,
      "easier": 9507,
      "Perry": 9508,
      "electricity": 9509,
      "papers": 9510,
      "Network": 9511,
      "brid": 9512,
      "Charlotte": 9513,
      "ja": 9514,
      "terrorist": 9515,
      "Rolling": 9516,
      "solo": 9517,
      "journalist": 9518,
      "Ell": 9519,
      "sudden": 9520,
      "consult": 9521,
      "Samuel": 9522,
      "recognition": 9523,
      "ule": 9524,
      "Governor": 9525,
      "owa": 9526,
      "worn": 9527,
      "merged": 9528,
      "championship": 9529,
      "Defense": 9530,
      "lion": 9531,
      "everybody": 9532,
      "combination": 9533,
      "Gordon": 9534,
      "Hawaii": 9535,
      "Hamp": 9536,
      "inspiration": 9537,
      "iers": 9538,
      "thic": 9539,
      "consecutive": 9540,
      "Communist": 9541,
      "cousin": 9542,
      "Pap": 9543,
      "driven": 9544,
      "controversial": 9545,
      "pills": 9546,
      "vals": 9547,
      "abul": 9548,
      "1939": 9549,
      "itime": 9550,
      "stomach": 9551,
      "Econom": 9552,
      "cular": 9553,
      "iot": 9554,
      "champions": 9555,
      "clar": 9556,
      "Capital": 9557,
      "models": 9558,
      "Eisenhow": 9559,
      "resem": 9560,
      "frag": 9561,
      "invention": 9562,
      "Justin": 9563,
      "intens": 9564,
      "oust": 9565,
      "buying": 9566,
      "poverty": 9567,
      "significantly": 9568,
      "descend": 9569,
      "prices": 9570,
      "Twitter": 9571,
      "71": 9572,
      "uras": 9573,
      "shots": 9574,
      "locations": 9575,
      "Yet": 9576,
      "Ral": 9577,
      "oe": 9578,
      "companied": 9579,
      "obl": 9580,
      "sang": 9581,
      "Territory": 9582,
      "Eisenhower": 9583,
      "Moz": 9584,
      "ruler": 9585,
      "Champions": 9586,
      "vegetables": 9587,
      "PI": 9588,
      "pic": 9589,
      "ranking": 9590,
      "1953": 9591,
      "flower": 9592,
      "issa": 9593,
      "artific": 9594,
      "1936": 9595,
      "Rhine": 9596,
      "MA": 9597,
      "alog": 9598,
      "Admin": 9599,
      "slaves": 9600,
      "fundamental": 9601,
      "74": 9602,
      "diff": 9603,
      "promote": 9604,
      "1900": 9605,
      "exec": 9606,
      "gie": 9607,
      "everywhere": 9608,
      "funding": 9609,
      "14th": 9610,
      "arrival": 9611,
      "----": 9612,
      "Aristo": 9613,
      "breed": 9614,
      "spokeswoman": 9615,
      "Gaddafi": 9616,
      "iat": 9617,
      "analyst": 9618,
      "61": 9619,
      "imprison": 9620,
      "Project": 9621,
      "arg": 9622,
      "supp": 9623,
      "aunt": 9624,
      "imony": 9625,
      "credited": 9626,
      "Ply": 9627,
      "itis": 9628,
      "notice": 9629,
      "archipelago": 9630,
      "clos": 9631,
      "bombing": 9632,
      "Prosecutors": 9633,
      "fuel": 9634,
      "tight": 9635,
      "olin": 9636,
      "districts": 9637,
      "possession": 9638,
      "Hebrew": 9639,
      "Phone": 9640,
      "throne": 9641,
      "Jennifer": 9642,
      "Town": 9643,
      "hug": 9644,
      "promise": 9645,
      "sacri": 9646,
      "Code": 9647,
      "phase": 9648,
      "bits": 9649,
      "flour": 9650,
      "trained": 9651,
      "prove": 9652,
      "egg": 9653,
      "authors": 9654,
      "Zim": 9655,
      "itals": 9656,
      "brings": 9657,
      "genus": 9658,
      "relax": 9659,
      "licens": 9660,
      "radiation": 9661,
      "Business": 9662,
      "Ice": 9663,
      "bom": 9664,
      "fewer": 9665,
      "Stadium": 9666,
      "suspected": 9667,
      "knowing": 9668,
      "categories": 9669,
      "Home": 9670,
      "estate": 9671,
      "considering": 9672,
      "nurse": 9673,
      "ranged": 9674,
      "organic": 9675,
      "acknowled": 9676,
      "ationally": 9677,
      "Whe": 9678,
      "Tokyo": 9679,
      "entry": 9680,
      "conven": 9681,
      "membership": 9682,
      "mechanical": 9683,
      "Prussian": 9684,
      "usalem": 9685,
      "visiting": 9686,
      "broadcas": 9687,
      "agriculture": 9688,
      "Lim": 9689,
      "phrase": 9690,
      "reputation": 9691,
      "factor": 9692,
      "layer": 9693,
      "DC": 9694,
      "yuan": 9695,
      "investment": 9696,
      "Jerusalem": 9697,
      "execution": 9698,
      "Angl": 9699,
      "everyday": 9700,
      "responded": 9701,
      "Hon": 9702,
      "sch": 9703,
      "vacu": 9704,
      "7th": 9705,
      "Lith": 9706,
      "injuries": 9707,
      "terrorism": 9708,
      "daughters": 9709,
      "ographic": 9710,
      "cakes": 9711,
      "opt": 9712,
      "moves": 9713,
      "aco": 9714,
      "hide": 9715,
      "remark": 9716,
      "narr": 9717,
      "Hispanic": 9718,
      "52": 9719,
      "ifts": 9720,
      "ipe": 9721,
      "Mum": 9722,
      "Forbes": 9723,
      "varies": 9724,
      "adapted": 9725,
      "DA": 9726,
      "Power": 9727,
      "jing": 9728,
      "ciation": 9729,
      "planets": 9730,
      "pressed": 9731,
      "secular": 9732,
      "dancing": 9733,
      "delivered": 9734,
      "YouTube": 9735,
      "concentration": 9736,
      "Dol": 9737,
      "hired": 9738,
      "blank": 9739,
      "emple": 9740,
      "sail": 9741,
      "Form": 9742,
      "falls": 9743,
      "Girl": 9744,
      "shar": 9745,
      "hasn": 9746,
      "closest": 9747,
      "maker": 9748,
      "vehicles": 9749,
      "immigrants": 9750,
      "innov": 9751,
      "bie": 9752,
      "ulture": 9753,
      "tot": 9754,
      "los": 9755,
      "signal": 9756,
      "dictator": 9757,
      "erald": 9758,
      "matic": 9759,
      "Belg": 9760,
      "Hampshire": 9761,
      "Still": 9762,
      "partly": 9763,
      "Leban": 9764,
      "poems": 9765,
      "wrest": 9766,
      "accompanied": 9767,
      "agle": 9768,
      "jan": 9769,
      "interpret": 9770,
      "Bot": 9771,
      "tric": 9772,
      "aka": 9773,
      "motiv": 9774,
      "neys": 9775,
      "Anderson": 9776,
      "trium": 9777,
      "Within": 9778,
      "translation": 9779,
      "Swedish": 9780,
      "pound": 9781,
      "thrown": 9782,
      "rope": 9783,
      "compounds": 9784,
      "desire": 9785,
      "passengers": 9786,
      "Aut": 9787,
      "remot": 9788,
      "creative": 9789,
      "grades": 9790,
      "suspended": 9791,
      "minimum": 9792,
      "Steven": 9793,
      "adventure": 9794,
      "branches": 9795,
      "surviving": 9796,
      "researchers": 9797,
      "Iowa": 9798,
      "nan": 9799,
      "migration": 9800,
      "Raj": 9801,
      "gence": 9802,
      "idel": 9803,
      "string": 9804,
      "girlfriend": 9805,
      "windows": 9806,
      "franchise": 9807,
      "allies": 9808,
      "rance": 9809,
      "viewers": 9810,
      "esar": 9811,
      "embr": 9812,
      "Cost": 9813,
      "designated": 9814,
      "historians": 9815,
      "distinguished": 9816,
      "PR": 9817,
      "kiss": 9818,
      "nose": 9819,
      "Moon": 9820,
      "governing": 9821,
      "honest": 9822,
      "Hernandez": 9823,
      "mum": 9824,
      "dral": 9825,
      "jection": 9826,
      "refuge": 9827,
      "istol": 9828,
      "Hungarian": 9829,
      "Ralph": 9830,
      "Qing": 9831,
      "iri": 9832,
      "asks": 9833,
      "Nich": 9834,
      "aga": 9835,
      "netic": 9836,
      "Global": 9837,
      "Film": 9838,
      "Community": 9839,
      "enforcement": 9840,
      "Diana": 9841,
      "Venez": 9842,
      "maz": 9843,
      "ication": 9844,
      "measured": 9845,
      "codes": 9846,
      "asant": 9847,
      "kidn": 9848,
      "purchase": 9849,
      "Call": 9850,
      "trig": 9851,
      "mosa": 9852,
      "fortunately": 9853,
      "TH": 9854,
      "venues": 9855,
      "__": 9856,
      "introduction": 9857,
      "IBM": 9858,
      "exciting": 9859,
      "lean": 9860,
      "illegal": 9861,
      "voters": 9862,
      "fifteen": 9863,
      "Aaron": 9864,
      "Plan": 9865,
      "thiop": 9866,
      "Hit": 9867,
      "pap": 9868,
      "separation": 9869,
      "Op": 9870,
      "gap": 9871,
      "theater": 9872,
      "apse": 9873,
      "spelling": 9874,
      "scor": 9875,
      "celebrate": 9876,
      "Armenia": 9877,
      "Morgan": 9878,
      "municipal": 9879,
      "Grammy": 9880,
      "lighting": 9881,
      "soul": 9882,
      "Hart": 9883,
      "Beach": 9884,
      "Winter": 9885,
      "tale": 9886,
      "relatives": 9887,
      "stored": 9888,
      "conversation": 9889,
      "Venezuel": 9890,
      "stepped": 9891,
      "writings": 9892,
      "Palestinian": 9893,
      "abbreviated": 9894,
      "rhyth": 9895,
      "Philippines": 9896,
      "Crown": 9897,
      "mart": 9898,
      "lawyers": 9899,
      "trend": 9900,
      "59": 9901,
      "ulu": 9902,
      "aining": 9903,
      "Jacob": 9904,
      "compat": 9905,
      "secure": 9906,
      "Idol": 9907,
      "hadn": 9908,
      "spark": 9909,
      "nucle": 9910,
      "Fu": 9911,
      "Tam": 9912,
      "Have": 9913,
      "bapt": 9914,
      "obtained": 9915,
[...]
